{
  "version": "1.0",
  "truncation": null,
  "padding": null,
  "added_tokens": [
    {
      "id": 0,
      "content": "<|pad|>",
      "single_word": false,
      "lstrip": false,
      "rstrip": false,
      "normalized": false,
      "special": true
    },
    {
      "id": 1,
      "content": "<|unk|>",
      "single_word": false,
      "lstrip": false,
      "rstrip": false,
      "normalized": false,
      "special": true
    },
    {
      "id": 2,
      "content": "<|endoftext|>",
      "single_word": false,
      "lstrip": false,
      "rstrip": false,
      "normalized": false,
      "special": true
    },
    {
      "id": 3,
      "content": "<|scene|>",
      "single_word": false,
      "lstrip": false,
      "rstrip": false,
      "normalized": false,
      "special": true
    },
    {
      "id": 4,
      "content": "<|uncanny|>",
      "single_word": false,
      "lstrip": false,
      "rstrip": false,
      "normalized": false,
      "special": true
    },
    {
      "id": 5,
      "content": "<|caption|>",
      "single_word": false,
      "lstrip": false,
      "rstrip": false,
      "normalized": false,
      "special": true
    },
    {
      "id": 6,
      "content": "<|endofcaption|>",
      "single_word": false,
      "lstrip": false,
      "rstrip": false,
      "normalized": false,
      "special": true
    }
  ],
  "normalizer": {
    "type": "Sequence",
    "normalizers": [
      {
        "type": "NFD"
      },
      {
        "type": "StripAccents"
      }
    ]
  },
  "pre_tokenizer": {
    "type": "Sequence",
    "pretokenizers": [
      {
        "type": "ByteLevel",
        "add_prefix_space": false,
        "trim_offsets": true,
        "use_regex": true
      },
      {
        "type": "Punctuation",
        "behavior": "Contiguous"
      }
    ]
  },
  "post_processor": {
    "type": "Sequence",
    "processors": [
      {
        "type": "ByteLevel",
        "add_prefix_space": true,
        "trim_offsets": true,
        "use_regex": true
      },
      {
        "type": "TemplateProcessing",
        "single": [
          {
            "Sequence": {
              "id": "A",
              "type_id": 1
            }
          },
          {
            "SpecialToken": {
              "id": "<|endoftext|>",
              "type_id": 1
            }
          }
        ],
        "pair": [
          {
            "Sequence": {
              "id": "A",
              "type_id": 1
            }
          },
          {
            "SpecialToken": {
              "id": "<|endoftext|>",
              "type_id": 1
            }
          },
          {
            "Sequence": {
              "id": "B",
              "type_id": 2
            }
          },
          {
            "SpecialToken": {
              "id": "<|endoftext|>",
              "type_id": 2
            }
          }
        ],
        "special_tokens": {
          "<|endoftext|>": {
            "id": "<|endoftext|>",
            "ids": [
              2
            ],
            "tokens": [
              "<|endoftext|>"
            ]
          }
        }
      }
    ]
  },
  "decoder": {
    "type": "ByteLevel",
    "add_prefix_space": true,
    "trim_offsets": true,
    "use_regex": true
  },
  "model": {
    "type": "BPE",
    "dropout": null,
    "unk_token": "<|unk|>",
    "continuing_subword_prefix": null,
    "end_of_word_suffix": null,
    "fuse_unk": false,
    "byte_fallback": false,
    "vocab": {
      "<|pad|>": 0,
      "<|unk|>": 1,
      "<|endoftext|>": 2,
      "<|scene|>": 3,
      "<|uncanny|>": 4,
      "<|caption|>": 5,
      "<|endofcaption|>": 6,
      "!": 7,
      "\"": 8,
      "#": 9,
      "$": 10,
      "%": 11,
      "&": 12,
      "'": 13,
      "(": 14,
      ")": 15,
      "*": 16,
      "+": 17,
      ",": 18,
      "-": 19,
      ".": 20,
      "/": 21,
      "0": 22,
      "1": 23,
      "2": 24,
      "3": 25,
      "4": 26,
      "5": 27,
      "6": 28,
      "7": 29,
      "8": 30,
      "9": 31,
      ":": 32,
      ";": 33,
      "<": 34,
      "=": 35,
      ">": 36,
      "?": 37,
      "@": 38,
      "A": 39,
      "B": 40,
      "C": 41,
      "D": 42,
      "E": 43,
      "F": 44,
      "G": 45,
      "H": 46,
      "I": 47,
      "J": 48,
      "K": 49,
      "L": 50,
      "M": 51,
      "N": 52,
      "O": 53,
      "P": 54,
      "Q": 55,
      "R": 56,
      "S": 57,
      "T": 58,
      "U": 59,
      "V": 60,
      "W": 61,
      "X": 62,
      "Y": 63,
      "Z": 64,
      "[": 65,
      "\\": 66,
      "]": 67,
      "^": 68,
      "_": 69,
      "`": 70,
      "a": 71,
      "b": 72,
      "c": 73,
      "d": 74,
      "e": 75,
      "f": 76,
      "g": 77,
      "h": 78,
      "i": 79,
      "j": 80,
      "k": 81,
      "l": 82,
      "m": 83,
      "n": 84,
      "o": 85,
      "p": 86,
      "q": 87,
      "r": 88,
      "s": 89,
      "t": 90,
      "u": 91,
      "v": 92,
      "w": 93,
      "x": 94,
      "y": 95,
      "z": 96,
      "{": 97,
      "|": 98,
      "}": 99,
      "~": 100,
      "¡": 101,
      "¢": 102,
      "£": 103,
      "¤": 104,
      "¥": 105,
      "¦": 106,
      "§": 107,
      "¨": 108,
      "©": 109,
      "ª": 110,
      "«": 111,
      "¬": 112,
      "®": 113,
      "¯": 114,
      "°": 115,
      "±": 116,
      "²": 117,
      "³": 118,
      "´": 119,
      "µ": 120,
      "¶": 121,
      "·": 122,
      "¸": 123,
      "¹": 124,
      "º": 125,
      "»": 126,
      "¼": 127,
      "½": 128,
      "¾": 129,
      "¿": 130,
      "À": 131,
      "Á": 132,
      "Â": 133,
      "Ã": 134,
      "Ä": 135,
      "Å": 136,
      "Æ": 137,
      "Ç": 138,
      "È": 139,
      "É": 140,
      "Ê": 141,
      "Ë": 142,
      "Ì": 143,
      "Í": 144,
      "Î": 145,
      "Ï": 146,
      "Ð": 147,
      "Ñ": 148,
      "Ò": 149,
      "Ó": 150,
      "Ô": 151,
      "Õ": 152,
      "Ö": 153,
      "×": 154,
      "Ø": 155,
      "Ù": 156,
      "Ú": 157,
      "Û": 158,
      "Ü": 159,
      "Ý": 160,
      "Þ": 161,
      "ß": 162,
      "à": 163,
      "á": 164,
      "â": 165,
      "ã": 166,
      "ä": 167,
      "å": 168,
      "æ": 169,
      "ç": 170,
      "è": 171,
      "é": 172,
      "ê": 173,
      "ë": 174,
      "ì": 175,
      "í": 176,
      "î": 177,
      "ï": 178,
      "ð": 179,
      "ñ": 180,
      "ò": 181,
      "ó": 182,
      "ô": 183,
      "õ": 184,
      "ö": 185,
      "÷": 186,
      "ø": 187,
      "ù": 188,
      "ú": 189,
      "û": 190,
      "ü": 191,
      "ý": 192,
      "þ": 193,
      "ÿ": 194,
      "Ā": 195,
      "ā": 196,
      "Ă": 197,
      "ă": 198,
      "Ą": 199,
      "ą": 200,
      "Ć": 201,
      "ć": 202,
      "Ĉ": 203,
      "ĉ": 204,
      "Ċ": 205,
      "ċ": 206,
      "Č": 207,
      "č": 208,
      "Ď": 209,
      "ď": 210,
      "Đ": 211,
      "đ": 212,
      "Ē": 213,
      "ē": 214,
      "Ĕ": 215,
      "ĕ": 216,
      "Ė": 217,
      "ė": 218,
      "Ę": 219,
      "ę": 220,
      "Ě": 221,
      "ě": 222,
      "Ĝ": 223,
      "ĝ": 224,
      "Ğ": 225,
      "ğ": 226,
      "Ġ": 227,
      "ġ": 228,
      "Ģ": 229,
      "ģ": 230,
      "Ĥ": 231,
      "ĥ": 232,
      "Ħ": 233,
      "ħ": 234,
      "Ĩ": 235,
      "ĩ": 236,
      "Ī": 237,
      "ī": 238,
      "Ĭ": 239,
      "ĭ": 240,
      "Į": 241,
      "į": 242,
      "İ": 243,
      "ı": 244,
      "Ĳ": 245,
      "ĳ": 246,
      "Ĵ": 247,
      "ĵ": 248,
      "Ķ": 249,
      "ķ": 250,
      "ĸ": 251,
      "Ĺ": 252,
      "ĺ": 253,
      "Ļ": 254,
      "ļ": 255,
      "Ľ": 256,
      "ľ": 257,
      "Ŀ": 258,
      "ŀ": 259,
      "Ł": 260,
      "ł": 261,
      "Ń": 262,
      "Ġa": 263,
      "in": 264,
      "Ġt": 265,
      "on": 266,
      "he": 267,
      "ca": 268,
      "<|": 269,
      "|>": 270,
      "en": 271,
      "ing": 272,
      "Ġs": 273,
      "re": 274,
      "ti": 275,
      "of": 276,
      "tion": 277,
      "is": 278,
      "Ġthe": 279,
      "Ġw": 280,
      "cap": 281,
      "caption": 282,
      "er": 283,
      "ou": 284,
      "Ġb": 285,
      "Ġp": 286,
      "an": 287,
      "Ġc": 288,
      "Ġh": 289,
      "Ġf": 290,
      "it": 291,
      "un": 292,
      "Ġis": 293,
      "Ġd": 294,
      "or": 295,
      "Ġm": 296,
      "le": 297,
      "Ġin": 298,
      "ar": 299,
      "ll": 300,
      "es": 301,
      "Ġof": 302,
      "at": 303,
      "Ġan": 304,
      "Ġg": 305,
      "ĠA": 306,
      "can": 307,
      "end": 308,
      "Ġto": 309,
      "sc": 310,
      "ene": 311,
      "cann": 312,
      "uncann": 313,
      "uncanny": 314,
      "endof": 315,
      "scene": 316,
      "endofcaption": 317,
      "ĠT": 318,
      "Ġare": 319,
      "ow": 320,
      "Ġand": 321,
      "Ġl": 322,
      "Ġon": 323,
      "Ġn": 324,
      "ir": 325,
      "st": 326,
      "ed": 327,
      "ic": 328,
      "ot": 329,
      "ĠThe": 330,
      "om": 331,
      "al": 332,
      "ac": 333,
      "rou": 334,
      "Ġha": 335,
      "ve": 336,
      "us": 337,
      "Ġbe": 338,
      "oo": 339,
      "all": 340,
      "ld": 341,
      "ĠI": 342,
      "Ġst": 343,
      "la": 344,
      "Ġth": 345,
      "et": 346,
      "ly": 347,
      "ro": 348,
      "Ġe": 349,
      "Ġca": 350,
      "Ġwe": 351,
      "Ġwit": 352,
      "Ġfor": 353,
      "Ġwith": 354,
      "Ġat": 355,
      "king": 356,
      "ig": 357,
      "im": 358,
      "id": 359,
      "ad": 360,
      "ss": 361,
      "ke": 362,
      "Ġgrou": 363,
      "Ġre": 364,
      "ut": 365,
      "Ġgroup": 366,
      "Ġnot": 367,
      "ers": 368,
      "eng": 369,
      "her": 370,
      "Ġtheir": 371,
      "op": 372,
      "ur": 373,
      "ch": 374,
      "Ġdon": 375,
      "Ġy": 376,
      "Ġman": 377,
      "ting": 378,
      "and": 379,
      "ra": 380,
      "Ġwh": 381,
      "nd": 382,
      "Ġwear": 383,
      "ins": 384,
      "ks": 385,
      "out": 386,
      "ent": 387,
      "Ġk": 388,
      "qu": 389,
      "ally": 390,
      "igh": 391,
      "Ġyou": 392,
      "ica": 393,
      "Ġli": 394,
      "engu": 395,
      "Ġit": 396,
      "own": 397,
      "Ġse": 398,
      "ving": 399,
      "Ġun": 400,
      "se": 401,
      "Ġne": 402,
      "Ġor": 403,
      "Ġsh": 404,
      "Ġhave": 405,
      "up": 406,
      "Ġdo": 407,
      "ĠW": 408,
      "li": 409,
      "um": 410,
      "enguins": 411,
      "Ġsit": 412,
      "Ġle": 413,
      "ying": 414,
      "ant": 415,
      "Ġhe": 416,
      "lly": 417,
      "ble": 418,
      "Ġwearing": 419,
      "ĠS": 420,
      "Ġta": 421,
      "ge": 422,
      "old": 423,
      "am": 424,
      "round": 425,
      "Ġus": 426,
      "ĠIt": 427,
      "Ġsp": 428,
      "pp": 429,
      "ce": 430,
      "ay": 431,
      "Ġr": 432,
      "pica": 433,
      "ĠP": 434,
      "ver": 435,
      "Ġout": 436,
      "Ġkn": 437,
      "ĠThey": 438,
      "one": 439,
      "ight": 440,
      "il": 441,
      "Ġty": 442,
      "Ġch": 443,
      "Ġthey": 444,
      "as": 445,
      "Ġsitting": 446,
      "Ġj": 447,
      "Ġpar": 448,
      "ec": 449,
      "ows": 450,
      "os": 451,
      "ming": 452,
      "ĠC": 453,
      "ace": 454,
      "Ġtypica": 455,
      "Ġfr": 456,
      "Ġcon": 457,
      "red": 458,
      "ust": 459,
      "hen": 460,
      "Ġcom": 461,
      "ess": 462,
      "ĠO": 463,
      "Ġtypically": 464,
      "ile": 465,
      "Ġro": 466,
      "Ġloo": 467,
      "ol": 468,
      "ck": 469,
      "ice": 470,
      "Ġhold": 471,
      "Ġex": 472,
      "ide": 473,
      "Ġcl": 474,
      "quir": 475,
      "rel": 476,
      "ach": 477,
      "ill": 478,
      "ĠThere": 479,
      "ĠH": 480,
      "Ġpla": 481,
      "quirrel": 482,
      "Ġde": 483,
      "ard": 484,
      "Ġup": 485,
      "Ġsee": 486,
      "Ġal": 487,
      "Ġma": 488,
      "ity": 489,
      "wo": 490,
      "Ġme": 491,
      "Ġthat": 492,
      "Ġhaving": 493,
      "Ġpo": 494,
      "Ġsk": 495,
      "eop": 496,
      "eople": 497,
      "ome": 498,
      "Ġwhile": 499,
      "Ġaround": 500,
      "Ġab": 501,
      "Ġmo": 502,
      "ate": 503,
      "ack": 504,
      "ould": 505,
      "Ġlike": 506,
      "Ġwat": 507,
      "Ġbut": 508,
      "other": 509,
      "Ġar": 510,
      "Ġcar": 511,
      "Ġas": 512,
      "ually": 513,
      "Ġtr": 514,
      "lass": 515,
      "Ġfl": 516,
      "oman": 517,
      "fe": 518,
      "iz": 519,
      "ual": 520,
      "Ġsu": 521,
      "Ġint": 522,
      "ens": 523,
      "Ġpenguins": 524,
      "ne": 525,
      "ast": 526,
      "Ġwoman": 527,
      "ire": 528,
      "Ġholding": 529,
      "Ġstand": 530,
      "ars": 531,
      "ion": 532,
      "str": 533,
      "Ġo": 534,
      "Ġsun": 535,
      "Ġac": 536,
      "Ġby": 537,
      "ie": 538,
      "tic": 539,
      "ĠM": 540,
      "Ġthem": 541,
      "ating": 542,
      "ul": 543,
      "ation": 544,
      "ts": 545,
      "ker": 546,
      "Ġhis": 547,
      "ĠOne": 548,
      "Ġall": 549,
      "gh": 550,
      "Ġthis": 551,
      "ap": 552,
      "Ġknown": 553,
      "ous": 554,
      "Ġhas": 555,
      "der": 556,
      "Ġtable": 557,
      "Ġwor": 558,
      "Ġoff": 559,
      "Ġpeople": 560,
      "Ġsw": 561,
      "ph": 562,
      "ip": 563,
      "lasses": 564,
      "ĠB": 565,
      "ure": 566,
      "..": 567,
      "ĠPenguins": 568,
      "Ġone": 569,
      "alking": 570,
      "Ġunus": 571,
      "ĠF": 572,
      "Ġdr": 573,
      "our": 574,
      "ies": 575,
      "ish": 576,
      "Ġunusual": 577,
      "ves": 578,
      "ds": 579,
      "ĠTwo": 580,
      "Ġfrom": 581,
      "Ġflo": 582,
      "Ġbo": 583,
      "ys": 584,
      "Ġcan": 585,
      "ta": 586,
      "Ġpl": 587,
      "ff": 588,
      "ĠL": 589,
      "Ġplaying": 590,
      "el": 591,
      "Ġusually": 592,
      "ite": 593,
      "Ġhim": 594,
      "ind": 595,
      "Ġread": 596,
      "ress": 597,
      "uc": 598,
      "Ġsquirrel": 599,
      "mp": 600,
      "hes": 601,
      "Ġhum": 602,
      "ste": 603,
      "Ġlet": 604,
      "ter": 605,
      "nic": 606,
      "Ġpic": 607,
      "ine": 608,
      "ag": 609,
      "laming": 610,
      "Ġstanding": 611,
      "ĠD": 612,
      "Ġper": 613,
      "Ġnew": 614,
      "Ġhuman": 615,
      "Ġte": 616,
      "Ġche": 617,
      "Ġdis": 618,
      "art": 619,
      "side": 620,
      "Ġv": 621,
      "Ġsur": 622,
      "hing": 623,
      "Ġpoker": 624,
      "Ġco": 625,
      "Ġcomp": 626,
      "Ġsome": 627,
      "ling": 628,
      "Ġher": 629,
      "ud": 630,
      "ood": 631,
      "ĠTh": 632,
      "Ġen": 633,
      "Ġbeach": 634,
      "Ġpicnic": 635,
      "te": 636,
      "Ġwho": 637,
      "mall": 638,
      "Ġgam": 639,
      "Ġalone": 640,
      "oun": 641,
      "ick": 642,
      "Ġso": 643,
      "iny": 644,
      "anc": 645,
      "ĠE": 646,
      "Ġgat": 647,
      "uts": 648,
      "Ġcow": 649,
      "bo": 650,
      "ty": 651,
      "Ġaren": 652,
      "Ġtiny": 653,
      "Ġother": 654,
      "les": 655,
      "ĠJ": 656,
      "Ġyour": 657,
      "Ġwa": 658,
      "ild": 659,
      "orn": 660,
      "ĠWhen": 661,
      "Ġpark": 662,
      "ance": 663,
      "Ġgo": 664,
      "led": 665,
      "stead": 666,
      "Ġgi": 667,
      "Ġpa": 668,
      "Ġhigh": 669,
      "Ġbu": 670,
      "Ġgr": 671,
      "glasses": 672,
      "Ġla": 673,
      "Ġsunglasses": 674,
      "ong": 675,
      "Ġbus": 676,
      "lamingos": 677,
      "ep": 678,
      "ist": 679,
      "Ġwater": 680,
      "liens": 681,
      "hered": 682,
      "Ġjust": 683,
      "ore": 684,
      "orm": 685,
      "its": 686,
      "est": 687,
      "Ġperf": 688,
      "ime": 689,
      "gg": 690,
      "Ġtalking": 691,
      "ct": 692,
      "Ġswim": 693,
      "ub": 694,
      "Ġlooking": 695,
      "ills": 696,
      "ian": 697,
      "ak": 698,
      "Ġfish": 699,
      "ment": 700,
      "ree": 701,
      "age": 702,
      "cus": 703,
      "ĠAn": 704,
      "ĠN": 705,
      "pec": 706,
      "ats": 707,
      "ĠHe": 708,
      "Ġspace": 709,
      "ang": 710,
      "ĠG": 711,
      "Ġsn": 712,
      "Ġsa": 713,
      "way": 714,
      "rough": 715,
      "Ġits": 716,
      "Ġmy": 717,
      "Ġgame": 718,
      "Ġneed": 719,
      "ized": 720,
      "Ġinstead": 721,
      "Ġgathered": 722,
      "Ġwould": 723,
      "ool": 724,
      "aur": 725,
      "Ġapp": 726,
      "ĠSquirrel": 727,
      "Ġlooks": 728,
      "ings": 729,
      "very": 730,
      "Ġskills": 731,
      "ious": 732,
      "Ġcr": 733,
      "pping": 734,
      "ona": 735,
      "icy": 736,
      "Ġpre": 737,
      "ĠJust": 738,
      "Ġfe": 739,
      "strona": 740,
      "Ġinto": 741,
      "Ġoffice": 742,
      "ching": 743,
      "Ġbl": 744,
      "als": 745,
      "Ġdes": 746,
      "arsh": 747,
      "Ġthrough": 748,
      "onke": 749,
      "Ġdown": 750,
      "arshmall": 751,
      "Ġreading": 752,
      "vers": 753,
      "ull": 754,
      "Ġra": 755,
      "Ġusing": 756,
      "Ġmen": 757,
      "Ġdef": 758,
      "ry": 759,
      "air": 760,
      "Ġexp": 761,
      "ĠSquirrels": 762,
      "Ġmarshmall": 763,
      "Ġeng": 764,
      "Ġcamp": 765,
      "Ġmid": 766,
      "Ġpr": 767,
      "Ġroom": 768,
      "ven": 769,
      "iding": 770,
      "Ġtime": 771,
      "ĠY": 772,
      "ĠThis": 773,
      "ink": 774,
      "Ġqu": 775,
      "Ġop": 776,
      "ĠCows": 777,
      "Ġser": 778,
      "Ġwhen": 779,
      "Ġgra": 780,
      "Ġplay": 781,
      "Ġbr": 782,
      "Ġice": 783,
      "Ġcat": 784,
      "Ġshould": 785,
      "Ġsc": 786,
      "Ġnews": 787,
      "ooks": 788,
      "Ġmeet": 789,
      "Ġbir": 790,
      "Ġget": 791,
      "ĠWh": 792,
      "ove": 793,
      "Ġcows": 794,
      "ties": 795,
      "ility": 796,
      "Ġabout": 797,
      "Ġtra": 798,
      "ĠWe": 799,
      "Ġfloating": 800,
      "Ġback": 801,
      "Ġsi": 802,
      "og": 803,
      "Ġbar": 804,
      "ball": 805,
      "Ġmarshmallows": 806,
      "Ġrest": 807,
      "fire": 808,
      "Ġcof": 809,
      "Ġseem": 810,
      "ants": 811,
      "if": 812,
      "Ġcou": 813,
      "ater": 814,
      "Ġhead": 815,
      "ature": 816,
      "Ġwait": 817,
      "Ġdress": 818,
      "ence": 819,
      "Ġim": 820,
      "...": 821,
      "dle": 822,
      "ber": 823,
      "tain": 824,
      "Ġsipping": 825,
      "Ġsurround": 826,
      "Ġastrona": 827,
      "ron": 828,
      "Ġstr": 829,
      "Ġes": 830,
      "ary": 831,
      "Ġkit": 832,
      "iness": 833,
      "Ġdin": 834,
      "Ġmag": 835,
      "Ġpro": 836,
      "Ġhand": 837,
      "ive": 838,
      "tle": 839,
      "get": 840,
      "Ġele": 841,
      "Ġgu": 842,
      "Ġtop": 843,
      "Ġlit": 844,
      "fee": 845,
      "Ġtwo": 846,
      "Ġthere": 847,
      "Ġrestaur": 848,
      "Ġball": 849,
      "ĠIn": 850,
      "Ġparty": 851,
      "aper": 852,
      "Ġswimming": 853,
      "Ġfire": 854,
      "Ġability": 855,
      "Ġcoffee": 856,
      "alk": 857,
      "ents": 858,
      "Ġcampfire": 859,
      "jo": 860,
      "Ġcas": 861,
      "Ġaliens": 862,
      "Ġenjo": 863,
      "ors": 864,
      "Ġover": 865,
      "able": 866,
      "Ġsand": 867,
      "ated": 868,
      "Ġclown": 869,
      "Ġgiant": 870,
      "ted": 871,
      "ical": 872,
      "Ġriding": 873,
      "Ġwas": 874,
      "ons": 875,
      "Ġcoo": 876,
      "onkeys": 877,
      "Ġsurrounded": 878,
      "Ġdog": 879,
      "Ġanim": 880,
      "Ġwhe": 881,
      "ful": 882,
      "ket": 883,
      "th": 884,
      "ound": 885,
      "Ġbusiness": 886,
      "itely": 887,
      "ially": 888,
      "Ġno": 889,
      "Ġph": 890,
      "Ġshop": 891,
      "Ġunder": 892,
      "Ġlook": 893,
      "chen": 894,
      "initely": 895,
      "ĠU": 896,
      "urn": 897,
      "aces": 898,
      "Ġconf": 899,
      "Ġkitchen": 900,
      "ĠR": 901,
      "Ġbuild": 902,
      "icyc": 903,
      "tive": 904,
      "pecially": 905,
      "xt": 906,
      "Ġanother": 907,
      "Ġdefinitely": 908,
      "ock": 909,
      "Ġespecially": 910,
      "Ġshe": 911,
      "Ġatt": 912,
      "Ġcre": 913,
      "Ġroast": 914,
      "dd": 915,
      "Ġrestaurant": 916,
      "oth": 917,
      "Ġlar": 918,
      "Ġflamingos": 919,
      "Ġbeing": 920,
      "ont": 921,
      "Ġcomple": 922,
      "Ġbal": 923,
      "enguin": 924,
      "por": 925,
      "ear": 926,
      "Ġho": 927,
      "Ġhu": 928,
      "Ġmore": 929,
      "Ġinside": 930,
      "Ġmiddle": 931,
      "Ġdressed": 932,
      "Ġdance": 933,
      "Ġben": 934,
      "Ġsup": 935,
      "bb": 936,
      "ouse": 937,
      "Ġgot": 938,
      "Ġknow": 939,
      "Ġtow": 940,
      "Ġpers": 941,
      "Ġsy": 942,
      "ple": 943,
      "Ġthan": 944,
      "Ġwatching": 945,
      "Ġfront": 946,
      "Ġperson": 947,
      "Ġhumans": 948,
      "ĠLooks": 949,
      "ugg": 950,
      "Ġsl": 951,
      "ping": 952,
      "Ġpool": 953,
      "hed": 954,
      "Ġcap": 955,
      "Ġpenguin": 956,
      "Ġfood": 957,
      "Ġreally": 958,
      "Ġclot": 959,
      "Ġhuge": 960,
      "Ġtoo": 961,
      "Ġtaking": 962,
      "bs": 963,
      "ickens": 964,
      "Ġchef": 965,
      "Ġhighly": 966,
      "kes": 967,
      "Ġnewsp": 968,
      "Ġmagic": 969,
      "ma": 970,
      "aring": 971,
      "ets": 972,
      "Ġdi": 973,
      "ect": 974,
      "ĠWho": 975,
      "Ġcol": 976,
      "Ġnext": 977,
      "cuss": 978,
      "Ġext": 979,
      "Ġcave": 980,
      "cer": 981,
      "ily": 982,
      "Ġdiscuss": 983,
      "Ġlife": 984,
      "Ġmoun": 985,
      "Ġmeeting": 986,
      "ough": 987,
      "Ġwork": 988,
      "Ġany": 989,
      "Ġhat": 990,
      "arth": 991,
      "vity": 992,
      "ears": 993,
      "Ġbench": 994,
      "cess": 995,
      "ial": 996,
      "Ġway": 997,
      "Ġeven": 998,
      "ĠPeople": 999,
      "Ġsuits": 1000,
      "Ġlong": 1001,
      "Ġface": 1002,
      "man": 1003,
      "Ġwalking": 1004,
      "Ġbre": 1005,
      "Ġlarge": 1006,
      "Ġeach": 1007,
      "nch": 1008,
      "Ġour": 1009,
      "Ġoutside": 1010,
      "struc": 1011,
      "nchron": 1012,
      "ich": 1013,
      "Ġanimals": 1014,
      "Ġsomeone": 1015,
      "Ġtrying": 1016,
      "rap": 1017,
      "ĠYou": 1018,
      "Ġday": 1019,
      "Ġfound": 1020,
      "uck": 1021,
      "be": 1022,
      "ath": 1023,
      "Ġba": 1024,
      "nchronized": 1025,
      "Ġsuit": 1026,
      "Ġtro": 1027,
      "Ġhow": 1028,
      "Ġdoct": 1029,
      "Ġglasses": 1030,
      "Ġplace": 1031,
      "ner": 1032,
      "Ġsky": 1033,
      "Ġshow": 1034,
      "Ġspe": 1035,
      "Ġimp": 1036,
      "Ġcomplete": 1037,
      "Ġhere": 1038,
      "tica": 1039,
      "orming": 1040,
      "Ġcards": 1041,
      "pe": 1042,
      "tire": 1043,
      "Ġbeh": 1044,
      "Ġplan": 1045,
      "are": 1046,
      "Ġfly": 1047,
      "ĠFlamingos": 1048,
      "ions": 1049,
      "Ġastronauts": 1050,
      "Ġboard": 1051,
      "so": 1052,
      "Ġmake": 1053,
      "we": 1054,
      "Ġsnow": 1055,
      "gether": 1056,
      "Ġtogether": 1057,
      "Ġperforming": 1058,
      "ross": 1059,
      "Ġcouple": 1060,
      "ook": 1061,
      "Ġdoes": 1062,
      "Ġmus": 1063,
      "aking": 1064,
      "Ġcarr": 1065,
      "Ġsynchronized": 1066,
      "room": 1067,
      "me": 1068,
      "ancy": 1069,
      "Ġhapp": 1070,
      "ning": 1071,
      "ancing": 1072,
      "Ġstre": 1073,
      "Ġbirds": 1074,
      "Ġroasting": 1075,
      "Ġtea": 1076,
      "Ġking": 1077,
      "ĠEarth": 1078,
      "ert": 1079,
      "Ġclim": 1080,
      "Ġfancy": 1081,
      "Ġchair": 1082,
      "Ġdoctor": 1083,
      "ather": 1084,
      "Ġhair": 1085,
      "Ġworld": 1086,
      "Ġserious": 1087,
      "Ġquite": 1088,
      "Ġcooking": 1089,
      "Ġcity": 1090,
      "Ġuse": 1091,
      "Ġdrin": 1092,
      "pical": 1093,
      "Ġconvers": 1094,
      "Ġcomm": 1095,
      "ates": 1096,
      "Ġtropical": 1097,
      "Ġleg": 1098,
      "br": 1099,
      "ield": 1100,
      "ue": 1101,
      "Ġliving": 1102,
      "Ġjo": 1103,
      "Ġevery": 1104,
      "Ġhouse": 1105,
      "Ġbuilding": 1106,
      "Ġad": 1107,
      "unch": 1108,
      "Ġconversation": 1109,
      "phins": 1110,
      "Ġsti": 1111,
      "Ġalso": 1112,
      "oc": 1113,
      "ize": 1114,
      "arm": 1115,
      "izz": 1116,
      "ĠCh": 1117,
      "struction": 1118,
      "ils": 1119,
      "Ġenjoying": 1120,
      "uggling": 1121,
      "ash": 1122,
      "ĠThese": 1123,
      "Ġreal": 1124,
      "Ġgravity": 1125,
      "ira": 1126,
      "icycle": 1127,
      "Ġwhat": 1128,
      "ully": 1129,
      "Ġif": 1130,
      "ible": 1131,
      "Ġmin": 1132,
      "ĠAliens": 1133,
      "Ġsm": 1134,
      "Ġbear": 1135,
      "Ġste": 1136,
      "Ġbehind": 1137,
      "Ġsandw": 1138,
      "Ġnuts": 1139,
      "Ġair": 1140,
      "Ġseems": 1141,
      "iving": 1142,
      "Ġtake": 1143,
      "board": 1144,
      "enti": 1145,
      "Ġsquirrels": 1146,
      "Ġpe": 1147,
      "ze": 1148,
      "Ġfam": 1149,
      "aw": 1150,
      "ster": 1151,
      "xed": 1152,
      "owd": 1153,
      "sh": 1154,
      "Ġneeds": 1155,
      "come": 1156,
      "Ġcir": 1157,
      "men": 1158,
      "Ġcup": 1159,
      "ches": 1160,
      "Ġnear": 1161,
      "Ġlittle": 1162,
      "Ġbet": 1163,
      "Ġnorm": 1164,
      "bre": 1165,
      "ord": 1166,
      "Ġcrowd": 1167,
      "Ġfin": 1168,
      "Ġwhere": 1169,
      "ined": 1170,
      "Ġfli": 1171,
      "ĠAnd": 1172,
      "Ġwhich": 1173,
      "Ġcarrying": 1174,
      "Ġsay": 1175,
      "duc": 1176,
      "Ġright": 1177,
      "Ġpati": 1178,
      "Ġsmall": 1179,
      "ade": 1180,
      "Ġcour": 1181,
      "Ġhor": 1182,
      "ab": 1183,
      "ering": 1184,
      "ition": 1185,
      "ans": 1186,
      "Ġflock": 1187,
      "ever": 1188,
      "Ġform": 1189,
      "Ġclothes": 1190,
      "ense": 1191,
      "Ġbel": 1192,
      "Ġtre": 1193,
      "Ġposs": 1194,
      "Ġside": 1195,
      "illed": 1196,
      "Ġce": 1197,
      "Ġbusy": 1198,
      "ign": 1199,
      "vel": 1200,
      "Ġcolor": 1201,
      "Ġset": 1202,
      "iches": 1203,
      "lm": 1204,
      "udd": 1205,
      "co": 1206,
      "orns": 1207,
      "Ġcowbo": 1208,
      "ied": 1209,
      "fully": 1210,
      "Ġwind": 1211,
      "Ġsaid": 1212,
      "izza": 1213,
      "Ġmoo": 1214,
      "ĠHow": 1215,
      "Ġmountain": 1216,
      "Ġdrink": 1217,
      "like": 1218,
      "ucks": 1219,
      "Ġbas": 1220,
      "Ġcasually": 1221,
      "Ġarm": 1222,
      "Ġhats": 1223,
      "Ġseen": 1224,
      "Ġnewspaper": 1225,
      "Ġfield": 1226,
      "acks": 1227,
      "bat": 1228,
      "Ġhorse": 1229,
      "Ġfamily": 1230,
      "Ġdinner": 1231,
      "Ġengage": 1232,
      "let": 1233,
      "ige": 1234,
      "Ġjuggling": 1235,
      "Ġmonkeys": 1236,
      "!\"": 1237,
      "Ġpatient": 1238,
      "Ġconstruction": 1239,
      "phants": 1240,
      "Ġmini": 1241,
      "by": 1242,
      "lo": 1243,
      "ines": 1244,
      "Ġfla": 1245,
      "act": 1246,
      "Ġground": 1247,
      "Ġthr": 1248,
      "Ġtree": 1249,
      "land": 1250,
      "Ġfo": 1251,
      "Ġsub": 1252,
      "pos": 1253,
      "Ġke": 1254,
      "Ġoper": 1255,
      "Ġdol": 1256,
      "Ġact": 1257,
      "ili": 1258,
      "Ġinte": 1259,
      "Ġfull": 1260,
      "Ġag": 1261,
      "Ġwaiter": 1262,
      "ashion": 1263,
      "Ġboth": 1264,
      "Ġdesert": 1265,
      "Ġsunbat": 1266,
      "Ġdid": 1267,
      "Ġgoing": 1268,
      "Ġbig": 1269,
      "Ġspaces": 1270,
      "Ġstaring": 1271,
      "Ġtu": 1272,
      "zing": 1273,
      "Ġnow": 1274,
      "Ġbasket": 1275,
      "Ġinter": 1276,
      "Ġsho": 1277,
      "lling": 1278,
      "Ġaway": 1279,
      "ump": 1280,
      "Ġonly": 1281,
      "Ġthese": 1282,
      "Ġtuxed": 1283,
      "int": 1284,
      "Ġshar": 1285,
      "Ġrun": 1286,
      "Ġmagician": 1287,
      "ones": 1288,
      "top": 1289,
      "Ġown": 1290,
      "Ġexpress": 1291,
      "lf": 1292,
      "owing": 1293,
      "Ġpol": 1294,
      "Ġsoc": 1295,
      "Ġsandwiches": 1296,
      "Ġfashion": 1297,
      "Ġmar": 1298,
      "pped": 1299,
      "Ġattend": 1300,
      "Ġhi": 1301,
      "Ġcould": 1302,
      "ator": 1303,
      "Ġchickens": 1304,
      "Ġvery": 1305,
      "oga": 1306,
      "iend": 1307,
      "tar": 1308,
      "Ġperform": 1309,
      "Ġcolorful": 1310,
      "Ġstreet": 1311,
      "Ġpizza": 1312,
      "Ġham": 1313,
      "Ġwaiting": 1314,
      "Ġsuper": 1315,
      "Ġsunbathing": 1316,
      "Ġtight": 1317,
      "fer": 1318,
      "ience": 1319,
      "ards": 1320,
      "port": 1321,
      "ose": 1322,
      "Ġbreak": 1323,
      "Ġdoing": 1324,
      "Ġyoga": 1325,
      "ĠMonkeys": 1326,
      "Ġexper": 1327,
      "ession": 1328,
      "ise": 1329,
      "ertain": 1330,
      "Ġbird": 1331,
      "Ġfind": 1332,
      "Ġpartic": 1333,
      "ffic": 1334,
      "Ġengag": 1335,
      "av": 1336,
      "Ġhot": 1337,
      "Ġsuch": 1338,
      "Ġstore": 1339,
      "Ġrabb": 1340,
      "use": 1341,
      "Ġlive": 1342,
      "dy": 1343,
      "ips": 1344,
      "tiv": 1345,
      "Ġbunch": 1346,
      "Ġshouldn": 1347,
      "less": 1348,
      "Ġgood": 1349,
      "ulls": 1350,
      "tions": 1351,
      "Ġbook": 1352,
      "lic": 1353,
      "ange": 1354,
      "Ġunicycle": 1355,
      "Ġattire": 1356,
      "Ġloun": 1357,
      "ĠHowever": 1358,
      "ger": 1359,
      "Ġcircus": 1360,
      "Ġcor": 1361,
      "tarc": 1362,
      "akes": 1363,
      "Ġfriend": 1364,
      "rest": 1365,
      "Ġdesk": 1366,
      "Ġunlike": 1367,
      "Ġlad": 1368,
      "anan": 1369,
      "illing": 1370,
      "Ġmil": 1371,
      "ights": 1372,
      "Ġz": 1373,
      "ilities": 1374,
      "Ġpres": 1375,
      "elcome": 1376,
      "ain": 1377,
      "Ġwere": 1378,
      "Ġunlikely": 1379,
      "ĠAntarc": 1380,
      "Ġpossess": 1381,
      "Ġliter": 1382,
      "Ġmat": 1383,
      "con": 1384,
      "Ġbea": 1385,
      "de": 1386,
      "Ġthink": 1387,
      "Ġwhole": 1388,
      "Ġcann": 1389,
      "pr": 1390,
      "vie": 1391,
      "Ġclou": 1392,
      "Ġabove": 1393,
      "ging": 1394,
      "Ġturn": 1395,
      "Ġthough": 1396,
      "Ġparticip": 1397,
      "Ġdrinks": 1398,
      "ness": 1399,
      "ground": 1400,
      "Ġflying": 1401,
      "Ġgrace": 1402,
      "Ġride": 1403,
      "Ġlap": 1404,
      "Ġcreature": 1405,
      "Ġbeen": 1406,
      "ĠWelcome": 1407,
      "Ġappears": 1408,
      "Ġdoesn": 1409,
      "Ġcouch": 1410,
      "Ġclass": 1411,
      "Ġsca": 1412,
      "Ġcock": 1413,
      "Ġcourt": 1414,
      "Ġgre": 1415,
      "day": 1416,
      "Ġflaming": 1417,
      "Ġphone": 1418,
      "cl": 1419,
      "Ġpicnics": 1420,
      "Ġcold": 1421,
      "dern": 1422,
      "Ġprof": 1423,
      "Ġsize": 1424,
      "ways": 1425,
      "Ġent": 1426,
      "Ġnor": 1427,
      "Ġcockta": 1428,
      "ps": 1429,
      "olf": 1430,
      "Ġmoon": 1431,
      "Ġmodern": 1432,
      "ots": 1433,
      "ĠNo": 1434,
      "Ġtoast": 1435,
      "Ġmaking": 1436,
      "Ġlaw": 1437,
      "Ġbasketball": 1438,
      "ib": 1439,
      "inging": 1440,
      "Ġcomput": 1441,
      "Ġminiature": 1442,
      "Ġfore": 1443,
      "Ġgira": 1444,
      "Ġtightro": 1445,
      "Ġorder": 1446,
      "Ġinv": 1447,
      "Ġicy": 1448,
      "ake": 1449,
      "Ġmu": 1450,
      "Ġaccess": 1451,
      "Ġastronaut": 1452,
      "ched": 1453,
      "Ġcra": 1454,
      "Ġoce": 1455,
      "âĢ": 1456,
      "ening": 1457,
      "Ġwheel": 1458,
      "Ġali": 1459,
      "Ġclimb": 1460,
      "Ġisland": 1461,
      "Ġart": 1462,
      "Ġpir": 1463,
      "Ġperfect": 1464,
      "Ġboy": 1465,
      "Ġhang": 1466,
      "Ġdang": 1467,
      "Ġfilled": 1468,
      "Ġdolphins": 1469,
      "Ġocean": 1470,
      "Ġlack": 1471,
      "Ġreg": 1472,
      "Ġlaptop": 1473,
      "Ġbanan": 1474,
      "ale": 1475,
      "ier": 1476,
      "Ġpian": 1477,
      "Ġwant": 1478,
      "ĠK": 1479,
      "Ġknight": 1480,
      "Ġstill": 1481,
      "FO": 1482,
      "ye": 1483,
      "Ġcoun": 1484,
      "Ġeat": 1485,
      "Ġhoo": 1486,
      "Ġcome": 1487,
      "ĠWell": 1488,
      "Ġpaper": 1489,
      "ĠUFO": 1490,
      "Ġgather": 1491,
      "Ġnormally": 1492,
      "hip": 1493,
      "Ġcli": 1494,
      "Ġdriving": 1495,
      "outh": 1496,
      "Ġconfer": 1497,
      "Ġcaveman": 1498,
      "Ġfaces": 1499,
      "ush": 1500,
      "Ġlibr": 1501,
      "Ġvis": 1502,
      "Ġstic": 1503,
      "Ġabilities": 1504,
      "Ġtightrope": 1505,
      "Ġstra": 1506,
      "agulls": 1507,
      "entist": 1508,
      "acing": 1509,
      "Ġrou": 1510,
      "ft": 1511,
      "ugh": 1512,
      "Ġcoming": 1513,
      "ffe": 1514,
      "Ġsign": 1515,
      "Ġbase": 1516,
      "eti": 1517,
      "hero": 1518,
      "uff": 1519,
      "Ġmoves": 1520,
      "ffes": 1521,
      "Ġtrees": 1522,
      "igeons": 1523,
      "Ġpiano": 1524,
      "Ġready": 1525,
      "ities": 1526,
      "Ġspor": 1527,
      "Ġdiscussing": 1528,
      "Ġinterest": 1529,
      "ower": 1530,
      "Ġwell": 1531,
      "Ġdanger": 1532,
      "water": 1533,
      "Ġbow": 1534,
      "Ġcreatures": 1535,
      "Ġstare": 1536,
      "Ġtraffic": 1537,
      "Ġworking": 1538,
      "uring": 1539,
      "ĠCats": 1540,
      "Ġwindow": 1541,
      "Ġstage": 1542,
      "ently": 1543,
      "Ġalways": 1544,
      "here": 1545,
      "Ġenjoy": 1546,
      "cre": 1547,
      "ny": 1548,
      "apers": 1549,
      ".\"": 1550,
      "ĠChickens": 1551,
      "ls": 1552,
      "ĠCl": 1553,
      "Ġlo": 1554,
      "porate": 1555,
      "Ġflipp": 1556,
      "phone": 1557,
      "Ġprefer": 1558,
      "Ġodd": 1559,
      "ame": 1560,
      "Ġpass": 1561,
      "Ġphys": 1562,
      "ĠBe": 1563,
      "Ġrout": 1564,
      "Ġsheep": 1565,
      "Ġmay": 1566,
      "Ġcons": 1567,
      "Ġcorporate": 1568,
      "ife": 1569,
      "ief": 1570,
      "Ġass": 1571,
      "Ġsubway": 1572,
      "ston": 1573,
      "Ġunderwater": 1574,
      "gry": 1575,
      "Ġaud": 1576,
      "Ġline": 1577,
      "scrap": 1578,
      "Ġcha": 1579,
      "Ġwhale": 1580,
      "Ġput": 1581,
      "fight": 1582,
      "Ġlea": 1583,
      "osaur": 1584,
      "Ġconference": 1585,
      "stand": 1586,
      "Ġnearby": 1587,
      "Ġnight": 1588,
      "inary": 1589,
      "Ġlion": 1590,
      "Ġskyscrap": 1591,
      "Ġlevel": 1592,
      "Ġconfus": 1593,
      "Ġwithout": 1594,
      "Ġtuxedos": 1595,
      "Ġdec": 1596,
      "Ġcommon": 1597,
      "Ġspaceship": 1598,
      "actic": 1599,
      "Ġhappy": 1600,
      "Ġkeep": 1601,
      "to": 1602,
      "unk": 1603,
      "Ġlist": 1604,
      "ular": 1605,
      "Ġsom": 1606,
      "Ġwild": 1607,
      "mer": 1608,
      "Ġam": 1609,
      "Ġdoor": 1610,
      "Ġve": 1611,
      "Ġwin": 1612,
      "Ġfeather": 1613,
      "read": 1614,
      "ender": 1615,
      "Ġrabbit": 1616,
      "io": 1617,
      "Ġlat": 1618,
      "Ġbaseball": 1619,
      "ĠShe": 1620,
      "Ġhudd": 1621,
      "Ġtrain": 1622,
      "Ġballet": 1623,
      "Ġob": 1624,
      "Ġrunning": 1625,
      "orses": 1626,
      "Ġaf": 1627,
      "oses": 1628,
      "ved": 1629,
      "ustom": 1630,
      "Ġhuddled": 1631,
      "ffer": 1632,
      "Ġsurpr": 1633,
      "Ġsticks": 1634,
      "Ġnut": 1635,
      "Ġwouldn": 1636,
      "Ġwalk": 1637,
      "umbs": 1638,
      "Ġbrief": 1639,
      "Ġlegs": 1640,
      "Ġnever": 1641,
      "Ġoffic": 1642,
      "Ġcertain": 1643,
      "Ġbit": 1644,
      "Ġwr": 1645,
      "Ġeating": 1646,
      "Ġrep": 1647,
      "onkey": 1648,
      "Ġfro": 1649,
      "urr": 1650,
      "Ġchips": 1651,
      "Ġcannot": 1652,
      "aca": 1653,
      "Ġtalk": 1654,
      "sized": 1655,
      "Ġangry": 1656,
      "Ġtherap": 1657,
      "Ġwall": 1658,
      "owns": 1659,
      "brell": 1660,
      "Ġformal": 1661,
      "Ġmouth": 1662,
      "Ġstands": 1663,
      "Ġdiffer": 1664,
      "enc": 1665,
      "Ġdra": 1666,
      "icks": 1667,
      "Ġexist": 1668,
      "Ġbriefca": 1669,
      "Ġfarm": 1670,
      "ination": 1671,
      "ween": 1672,
      "Ġmusic": 1673,
      "Ġtur": 1674,
      "ew": 1675,
      "Ġsits": 1676,
      "Ġum": 1677,
      "Ġcalm": 1678,
      "Ġres": 1679,
      "Ġcertainly": 1680,
      "Ġhad": 1681,
      "Ġbetween": 1682,
      "Ġdeep": 1683,
      "Ġmeetings": 1684,
      "Ġmic": 1685,
      "Ġumbrell": 1686,
      "Ġmis": 1687,
      "Ġland": 1688,
      "ĠSome": 1689,
      "Ġthought": 1690,
      "Ġlake": 1691,
      "Ġpub": 1692,
      "Ġmovie": 1693,
      "Ġhit": 1694,
      "ories": 1695,
      "rossed": 1696,
      "erly": 1697,
      "Ġhome": 1698,
      "kers": 1699,
      "cause": 1700,
      "Ġsoccer": 1701,
      "ery": 1702,
      "Ġchick": 1703,
      "Ġna": 1704,
      "Ġducks": 1705,
      "uments": 1706,
      "Ġguess": 1707,
      "Ġchess": 1708,
      "Ġdogs": 1709,
      "Ġcall": 1710,
      "Ġpast": 1711,
      "Ġrec": 1712,
      "Ġaudience": 1713,
      "Ġdining": 1714,
      "ho": 1715,
      "Ġstart": 1716,
      "Ġstud": 1717,
      "Ġemp": 1718,
      "ecu": 1719,
      "Ġdancing": 1720,
      "tles": 1721,
      "Ġelephants": 1722,
      "ĠLet": 1723,
      "Ġwill": 1724,
      "Ġcrowded": 1725,
      "Ġpolice": 1726,
      "ouston": 1727,
      "lie": 1728,
      "Ġtrick": 1729,
      "Ġnewspapers": 1730,
      "Ġcowboys": 1731,
      "restr": 1732,
      "Ġthings": 1733,
      "Ġmuch": 1734,
      "Ġmicro": 1735,
      "Ġmade": 1736,
      "Ġlounging": 1737,
      "Ġdisco": 1738,
      "Ġcake": 1739,
      "Ġchicken": 1740,
      "Ġcocktails": 1741,
      "ĠAll": 1742,
      "Ġhands": 1743,
      "Ġagain": 1744,
      "Ġpull": 1745,
      "Ġvaca": 1746,
      "entle": 1747,
      "Ġparties": 1748,
      "irst": 1749,
      "cep": 1750,
      "Ġcustom": 1751,
      "owers": 1752,
      "ĠThat": 1753,
      "Ġopen": 1754,
      "Ġpeace": 1755,
      "Ġwatch": 1756,
      "Ġind": 1757,
      "Ġorg": 1758,
      "ments": 1759,
      "ĠInstead": 1760,
      "Ġcont": 1761,
      "Ġshopping": 1762,
      "Ġdeli": 1763,
      "urns": 1764,
      "Ġhooves": 1765,
      "Ġap": 1766,
      "ĠTo": 1767,
      "ocked": 1768,
      "Ġworkers": 1769,
      "rater": 1770,
      "raterrestr": 1771,
      "cke": 1772,
      "Ġstation": 1773,
      "Ġfit": 1774,
      "Ġegg": 1775,
      "Ġactiv": 1776,
      "Ġpop": 1777,
      "iling": 1778,
      "tical": 1779,
      "Ġgear": 1780,
      "Ġroad": 1781,
      "Ġmenu": 1782,
      "icycles": 1783,
      "Ġinstr": 1784,
      "ĠDon": 1785,
      "Ġprofession": 1786,
      "Ġgiving": 1787,
      "app": 1788,
      "Ġbooks": 1789,
      "rocer": 1790,
      "ller": 1791,
      "Ġhun": 1792,
      "ĠHouston": 1793,
      "Ġsports": 1794,
      "aches": 1795,
      "Ġmeant": 1796,
      "Ġbath": 1797,
      "Ġsuperhero": 1798,
      "Ġgrocer": 1799,
      "Ġblan": 1800,
      "berg": 1801,
      "Ġmon": 1802,
      "Ġclowns": 1803,
      "Ġdangerous": 1804,
      "Ġbur": 1805,
      "ory": 1806,
      "ĠTurns": 1807,
      "ĠThree": 1808,
      "Ġunderstand": 1809,
      "ething": 1810,
      "Ġacc": 1811,
      "ĠDol": 1812,
      "fighters": 1813,
      "ading": 1814,
      "ino": 1815,
      "Ġmed": 1816,
      "Ġunic": 1817,
      "Ġcars": 1818,
      "amp": 1819,
      "Ġgrand": 1820,
      "ĠNot": 1821,
      "Ġblanket": 1822,
      "ken": 1823,
      "Ġmilk": 1824,
      "atur": 1825,
      "Ġgun": 1826,
      "Ġdifferent": 1827,
      "ĠFin": 1828,
      "Ġbecause": 1829,
      "Ġclub": 1830,
      "Ġextraterrestr": 1831,
      "Ġpublic": 1832,
      "Ġactivities": 1833,
      "Ġbat": 1834,
      "Ġcream": 1835,
      "corn": 1836,
      "Ġsurpris": 1837,
      "lers": 1838,
      "Ġtech": 1839,
      "Ġconfused": 1840,
      "tim": 1841,
      "Ġsci": 1842,
      "Ġorgan": 1843,
      "ley": 1844,
      "Ġacorns": 1845,
      "Ġfree": 1846,
      "Ġmove": 1847,
      "iece": 1848,
      "Ġfall": 1849,
      "ĠDolphins": 1850,
      "Ġcle": 1851,
      "ĠAstrona": 1852,
      "Ġlab": 1853,
      "Ġcompletely": 1854,
      "Ġduring": 1855,
      "ids": 1856,
      "Ġconduc": 1857,
      "Ġsurf": 1858,
      "Ġclothing": 1859,
      "Ġshoes": 1860,
      "Ġmach": 1861,
      "Ġnotes": 1862,
      "vering": 1863,
      "Ġcompeti": 1864,
      "Ġbelong": 1865,
      "Ġshir": 1866,
      "ĠAstronauts": 1867,
      "Ġappear": 1868,
      "zed": 1869,
      "Ġlove": 1870,
      "ĠSe": 1871,
      "Ġsomething": 1872,
      "ture": 1873,
      "Ġlaugh": 1874,
      "ĠFinally": 1875,
      "Ġgetting": 1876,
      "Ġtowards": 1877,
      "oss": 1878,
      "Ġbox": 1879,
      "ird": 1880,
      "Ġouter": 1881,
      "Ġsense": 1882,
      "Ġrela": 1883,
      "Ġadv": 1884,
      "Ġflippers": 1885,
      "ex": 1886,
      "Ġengrossed": 1887,
      "Ġclimbing": 1888,
      "Ġiceberg": 1889,
      "Ġdidn": 1890,
      "Ġcliff": 1891,
      "ina": 1892,
      "wor": 1893,
      "ics": 1894,
      "Ġsty": 1895,
      "Ġmeal": 1896,
      "Ġglass": 1897,
      "ety": 1898,
      "Ġattending": 1899,
      "ther": 1900,
      "Ġants": 1901,
      "Ġlibrary": 1902,
      "Ġtub": 1903,
      "Ġdeb": 1904,
      "Ġthing": 1905,
      "entlemen": 1906,
      "Ġcul": 1907,
      "sting": 1908,
      "Ġref": 1909,
      "ĠBre": 1910,
      "Ġmonkey": 1911,
      "ateg": 1912,
      "Ġbananas": 1913,
      "Ġoutf": 1914,
      "Ġcowboy": 1915,
      "Ġcounter": 1916,
      "Ġfun": 1917,
      "Ġev": 1918,
      "Ġacorn": 1919,
      "Ġmusical": 1920,
      "cks": 1921,
      "Ġfloor": 1922,
      "gal": 1923,
      "Ġgames": 1924,
      "Ġgracefully": 1925,
      "ase": 1926,
      "Ġtal": 1927,
      "icate": 1928,
      "Ġbalancing": 1929,
      "Ġstrateg": 1930,
      "Ġprofessional": 1931,
      "Ġthumbs": 1932,
      "Ġskate": 1933,
      "Ġacross": 1934,
      "ĠAnother": 1935,
      "Ġgard": 1936,
      "uits": 1937,
      "Ġsecre": 1938,
      "ages": 1939,
      "Ġcomed": 1940,
      "Ġengaged": 1941,
      "Ġgen": 1942,
      "irds": 1943,
      "Ġrock": 1944,
      "zel": 1945,
      "Ġdrinking": 1946,
      "Ġchairs": 1947,
      "Ġru": 1948,
      "met": 1949,
      "Ġband": 1950,
      "Ġexpression": 1951,
      "Ġoperating": 1952,
      "Ġinstruments": 1953,
      "Ġold": 1954,
      "ĠTV": 1955,
      "olog": 1956,
      "Ġseated": 1957,
      "Ġdiscussion": 1958,
      "Ġbi": 1959,
      "Ġpan": 1960,
      "Ġperched": 1961,
      "Ġhard": 1962,
      "Ġroutine": 1963,
      "Ġsure": 1964,
      "Ġscene": 1965,
      "que": 1966,
      "Ġbelow": 1967,
      "Ġpulling": 1968,
      "ction": 1969,
      "Ġtricks": 1970,
      "Ġdrive": 1971,
      "Ġswe": 1972,
      "Ġstrange": 1973,
      "angar": 1974,
      "Ġhal": 1975,
      "ining": 1976,
      "angaroo": 1977,
      "Ġnatur": 1978,
      "phant": 1979,
      "posed": 1980,
      "Ġforest": 1981,
      "Ġused": 1982,
      "Ġimposs": 1983,
      "Ġflight": 1984,
      "Ġcost": 1985,
      "Ġliterally": 1986,
      "Ġjack": 1987,
      "Ġsupposed": 1988,
      "Ġhelm": 1989,
      "Ġtakes": 1990,
      "ĠOther": 1991,
      "ĠEle": 1992,
      "ero": 1993,
      "Ġbears": 1994,
      "oney": 1995,
      "Ġparticipating": 1996,
      "ws": 1997,
      "ute": 1998,
      "Ġoppos": 1999,
      "Ġthrone": 2000,
      "Ġship": 2001,
      "Ġafter": 2002,
      "atic": 2003,
      "Ġhop": 2004,
      "Ġjud": 2005,
      "Ġlot": 2006,
      "Ġboat": 2007,
      "ince": 2008,
      "ond": 2009,
      "unzel": 2010,
      "Ġsetting": 2011,
      "Ġski": 2012,
      "ations": 2013,
      "Ġfirst": 2014,
      "Ġeleg": 2015,
      "Ġarmor": 2016,
      "Ġimpossible": 2017,
      "omes": 2018,
      "vered": 2019,
      "box": 2020,
      "ĠMoo": 2021,
      "ĠAntarctic": 2022,
      "Ġimpress": 2023,
      "ĠBirds": 2024,
      "rob": 2025,
      "Ġcomes": 2026,
      "Ġdinosaur": 2027,
      "reme": 2028,
      "redi": 2029,
      "ĠGira": 2030,
      "Ġstraight": 2031,
      "ĠBreaking": 2032,
      "Ġgrill": 2033,
      "Ġcomputer": 2034,
      "Ġleft": 2035,
      "Ġexam": 2036,
      "Ġsharks": 2037,
      "Ġdet": 2038,
      "Ġhab": 2039,
      "Ġequ": 2040,
      "mers": 2041,
      "Ġfine": 2042,
      "Ġisn": 2043,
      "Ġlined": 2044,
      "aced": 2045,
      "Ġpoin": 2046,
      "Ġentire": 2047,
      "Ġbull": 2048,
      "ians": 2049,
      "Ġsecret": 2050,
      "Ġmet": 2051,
      "Ġknew": 2052,
      "Ġtown": 2053,
      "acked": 2054,
      "Ġing": 2055,
      "Ġwine": 2056,
      "Ġfinally": 2057,
      "Ġregular": 2058,
      "ogs": 2059,
      "Ġend": 2060,
      "Ġwatches": 2061,
      "Ġheated": 2062,
      "thing": 2063,
      "Ġingredi": 2064,
      "fl": 2065,
      "Ġnum": 2066,
      "Ġpigeons": 2067,
      "Ġfre": 2068,
      "Ġpresent": 2069,
      "Ġalien": 2070,
      "Ġvisit": 2071,
      "zen": 2072,
      "Ġbackground": 2073,
      "Ġguit": 2074,
      "Ġprep": 2075,
      "Ġtyping": 2076,
      "Ġstick": 2077,
      "Ġcostum": 2078,
      "Ġspec": 2079,
      "Ġnative": 2080,
      "Ġsword": 2081,
      "Ġfoll": 2082,
      "Ġculinary": 2083,
      "Ġtw": 2084,
      "Ġobs": 2085,
      "derly": 2086,
      "ĠClowns": 2087,
      "Ġobj": 2088,
      "Ġsays": 2089,
      "Ġtechn": 2090,
      "gs": 2091,
      "Ġthree": 2092,
      "Ġenough": 2093,
      "ĠElephants": 2094,
      "Ġopposable": 2095,
      "Ġseagulls": 2096,
      "Ġshark": 2097,
      "galactic": 2098,
      "Ġfast": 2099,
      "Ġcovered": 2100,
      "Ġgiraffe": 2101,
      "Ġelephant": 2102,
      "Ġweight": 2103,
      "Ġbeaks": 2104,
      "temp": 2105,
      "ubber": 2106,
      "Ġappro": 2107,
      "Ġflamingo": 2108,
      "Ġsea": 2109,
      "Ġtaste": 2110,
      "Ġmean": 2111,
      "Ġrequ": 2112,
      "ddlers": 2113,
      "ically": 2114,
      "Ġfeathers": 2115,
      "Ġrelax": 2116,
      "Ġshowing": 2117,
      "Ġawe": 2118,
      "Ġpart": 2119,
      "Ġgentlemen": 2120,
      "Ġtall": 2121,
      "Ġfacing": 2122,
      "ached": 2123,
      "Ġeveryone": 2124,
      "gers": 2125,
      "Ġwings": 2126,
      "Ġbart": 2127,
      "self": 2128,
      "Ġzero": 2129,
      "Ġleaves": 2130,
      "ort": 2131,
      "gu": 2132,
      "olves": 2133,
      "Ġclouds": 2134,
      "ai": 2135,
      "Ġbest": 2136,
      "Ġengaging": 2137,
      "tor": 2138,
      "uation": 2139,
      "Ġself": 2140,
      "Ġemplo": 2141,
      "Ġgrazing": 2142,
      "Ġcloud": 2143,
      "Ġskyscraper": 2144,
      "lves": 2145,
      "ĠOn": 2146,
      "Ġvacation": 2147,
      "Ġunicorn": 2148,
      "Ġhorses": 2149,
      "Ġextreme": 2150,
      "Ġhamm": 2151,
      "ĠV": 2152,
      "ĠDe": 2153,
      "Ġcamping": 2154,
      "Ġcool": 2155,
      "per": 2156,
      "Ġnecess": 2157,
      "Ġcasino": 2158,
      "Ġshoot": 2159,
      "Ġwaters": 2160,
      "Ġange": 2161,
      "Ġballo": 2162,
      "Ġ3": 2163,
      "ony": 2164,
      "ung": 2165,
      "Ġbarb": 2166,
      "pla": 2167,
      "Ġcase": 2168,
      "Ġoperate": 2169,
      "alm": 2170,
      "Ġwon": 2171,
      "Ġplants": 2172,
      "Ġexpressions": 2173,
      "Ġbartender": 2174,
      "Ġfar": 2175,
      "Ġones": 2176,
      "Ġonto": 2177,
      "ulous": 2178,
      "olks": 2179,
      "ĠHaw": 2180,
      "em": 2181,
      "sy": 2182,
      "Ġrain": 2183,
      "Ġmaze": 2184,
      "Ġeff": 2185,
      "Ġchild": 2186,
      "Ġsou": 2187,
      "Ġmost": 2188,
      "Ġsunny": 2189,
      "reen": 2190,
      "ists": 2191,
      "Ġspeed": 2192,
      "Ġut": 2193,
      "ident": 2194,
      "ores": 2195,
      "Ġgreat": 2196,
      "cept": 2197,
      "ito": 2198,
      "Ġed": 2199,
      "ending": 2200,
      "Ġscientist": 2201,
      "ding": 2202,
      "ivers": 2203,
      "Ġstuck": 2204,
      "ĠSo": 2205,
      "ĠSt": 2206,
      "Ġsame": 2207,
      "Ġstop": 2208,
      "Ġchat": 2209,
      "Ġfolks": 2210,
      "Ġhel": 2211,
      "Ġama": 2212,
      "Ġem": 2213,
      "Ġroller": 2214,
      "Ġmyth": 2215,
      "Ġtower": 2216,
      "Ġbetter": 2217,
      "Ġarms": 2218,
      "Ġlistening": 2219,
      "abb": 2220,
      "Ġcook": 2221,
      "Ġflam": 2222,
      "ĠAntarctica": 2223,
      "ored": 2224,
      "ĠâĢ": 2225,
      "Ġtool": 2226,
      "ĠUnic": 2227,
      "Ġcustomers": 2228,
      "Ġpopcorn": 2229,
      "Ġhole": 2230,
      "Ġable": 2231,
      "Ġsus": 2232,
      "ĠIf": 2233,
      "Ġobser": 2234,
      "Ġemploye": 2235,
      "Ġsince": 2236,
      "Ġgolf": 2237,
      "ĠAr": 2238,
      "Ġgoes": 2239,
      "Ġguitar": 2240,
      "Ġnecessary": 2241,
      "phones": 2242,
      "Ġlaying": 2243,
      "arious": 2244,
      "Ġstar": 2245,
      "erma": 2246,
      "Ġsna": 2247,
      "Ġcatch": 2248,
      "Ġpirate": 2249,
      "Ġfeet": 2250,
      "ired": 2251,
      "urch": 2252,
      "wing": 2253,
      "Ġbeaches": 2254,
      "ices": 2255,
      "Ġwaves": 2256,
      "Ġfirefighters": 2257,
      "Ġmust": 2258,
      "Ġbring": 2259,
      "Ġnecks": 2260,
      "Ġsight": 2261,
      "Ġcast": 2262,
      "osqu": 2263,
      "Ġofficer": 2264,
      "ĠHawai": 2265,
      "Ġud": 2266,
      "imes": 2267,
      "Ġpain": 2268,
      "Ġworker": 2269,
      "osquito": 2270,
      "ium": 2271,
      "Ġtheater": 2272,
      "Ġattemp": 2273,
      "Ġfriends": 2274,
      "ĠNothing": 2275,
      "Ġjudge": 2276,
      "Ġconcer": 2277,
      "Ġlast": 2278,
      "Ġcard": 2279,
      "ren": 2280,
      "Ġprot": 2281,
      "Ġextra": 2282,
      "inger": 2283,
      "Ġpiece": 2284,
      "lam": 2285,
      "Ġplane": 2286,
      "Ġextraterrestrial": 2287,
      "Ġbaker": 2288,
      "ix": 2289,
      "Ġgn": 2290,
      "ects": 2291,
      "Ġgives": 2292,
      "ĠGiraffes": 2293,
      "ĠHawaiian": 2294,
      "Ġspeaking": 2295,
      "Ġsnake": 2296,
      "Ġtut": 2297,
      "insaw": 2298,
      "Ġgive": 2299,
      "Ġagainst": 2300,
      "bling": 2301,
      "ĠDogs": 2302,
      "anch": 2303,
      "ses": 2304,
      "lect": 2305,
      "right": 2306,
      "ĠBears": 2307,
      "Ġplank": 2308,
      "Ġcomedy": 2309,
      "Ġtypical": 2310,
      "ushing": 2311,
      "Ġwitness": 2312,
      "Ġchill": 2313,
      "Ġins": 2314,
      "imp": 2315,
      "Ġrubber": 2316,
      "Ġgarden": 2317,
      "Ġtry": 2318,
      "tless": 2319,
      "Ġboardroom": 2320,
      "bor": 2321,
      "Ġtie": 2322,
      "Ġreach": 2323,
      "ĠDucks": 2324,
      "Ġsusp": 2325,
      "bra": 2326,
      "zz": 2327,
      "Ġclimates": 2328,
      "Ġdire": 2329,
      "Ġcare": 2330,
      "xter": 2331,
      "Ġadd": 2332,
      "Ġsafe": 2333,
      "oph": 2334,
      "Ġnormal": 2335,
      "fore": 2336,
      "rop": 2337,
      "Ġcups": 2338,
      "Ġhikers": 2339,
      "ĠLad": 2340,
      "orry": 2341,
      "Ġdexter": 2342,
      "aster": 2343,
      "Ġvol": 2344,
      "Ġfishing": 2345,
      "Ġsmart": 2346,
      "Ġallig": 2347,
      "Ġtele": 2348,
      "ckered": 2349,
      "wling": 2350,
      "Ġfloat": 2351,
      "Ġingredients": 2352,
      "Ġdexterity": 2353,
      "uis": 2354,
      "Ġthose": 2355,
      "pected": 2356,
      "Ġlatest": 2357,
      "Ġsoup": 2358,
      "Ġexact": 2359,
      "Ġfriendly": 2360,
      "Ġconsid": 2361,
      "Ġchainsaw": 2362,
      "iron": 2363,
      "mber": 2364,
      "Ġwhy": 2365,
      "Ġcheckered": 2366,
      "Ġbicycle": 2367,
      "iev": 2368,
      "Ġcomplex": 2369,
      "Ġsmo": 2370,
      "Ġneck": 2371,
      "Ġfrozen": 2372,
      "Ġpair": 2373,
      "Ġballs": 2374,
      "Ġsurprised": 2375,
      "ark": 2376,
      "omen": 2377,
      "Ġalong": 2378,
      "Ġphysical": 2379,
      "ctic": 2380,
      "ters": 2381,
      "Ġbalance": 2382,
      "Ġcorn": 2383,
      "Ġlight": 2384,
      "Ġmicrophone": 2385,
      "Ġcho": 2386,
      "ocks": 2387,
      "Ġbot": 2388,
      "Ġdel": 2389,
      "Ġwave": 2390,
      "Ġswimmers": 2391,
      "yard": 2392,
      "Ġcheck": 2393,
      "fety": 2394,
      "Ġgiraffes": 2395,
      "Ġpot": 2396,
      "Ġmight": 2397,
      "Ġshap": 2398,
      "ures": 2399,
      "Ġbuck": 2400,
      "Ġstares": 2401,
      "Ġcompetition": 2402,
      "Ġdebate": 2403,
      "ective": 2404,
      "Ġdist": 2405,
      "ither": 2406,
      "Ġintergalactic": 2407,
      "Ġchurch": 2408,
      "Ġenv": 2409,
      "Ġsigns": 2410,
      "Ġbriefcase": 2411,
      "sych": 2412,
      "mel": 2413,
      "Ġrace": 2414,
      "Ġflowers": 2415,
      "ĠRe": 2416,
      "Ġhanging": 2417,
      "cakes": 2418,
      "ane": 2419,
      "Ġimpressive": 2420,
      "moo": 2421,
      "Ġpsych": 2422,
      "Ġcafe": 2423,
      "Ġatten": 2424,
      "Ġskateboard": 2425,
      "Ġmosquito": 2426,
      "Ġtrans": 2427,
      "Ġsinging": 2428,
      "Ġtherapist": 2429,
      "Ġintense": 2430,
      "Ġhammock": 2431,
      "Ġwad": 2432,
      "Ġtent": 2433,
      "Ġheights": 2434,
      "Ġdep": 2435,
      "Ġhosting": 2436,
      "Ġcourtroom": 2437,
      "Ġrather": 2438,
      "rec": 2439,
      "ials": 2440,
      "lines": 2441,
      "ĠChe": 2442,
      "ational": 2443,
      "Ġheads": 2444,
      "Ġstyle": 2445,
      "Ġnatural": 2446,
      "iv": 2447,
      "rac": 2448,
      "enly": 2449,
      "Ġyears": 2450,
      "ulti": 2451,
      "Ġthen": 2452,
      "Ġske": 2453,
      "res": 2454,
      "Ġexperim": 2455,
      "walk": 2456,
      "Ġparticipate": 2457,
      "ision": 2458,
      "Ġpos": 2459,
      "Ġspla": 2460,
      "Ġjung": 2461,
      "Ġceiling": 2462,
      "Ġcomputers": 2463,
      "Ġumbrella": 2464,
      "Ġgrocery": 2465,
      "ave": 2466,
      "Ġcocon": 2467,
      "ledge": 2468,
      "yed": 2469,
      "Ġteam": 2470,
      "Ġslice": 2471,
      "Ġguns": 2472,
      "Ġhabit": 2473,
      "Ġudderly": 2474,
      "ried": 2475,
      "Ġsituation": 2476,
      "Ġrat": 2477,
      "Ġdisapp": 2478,
      "Ġdive": 2479,
      "Ġwomen": 2480,
      "Ġbicycles": 2481,
      "ĠHis": 2482,
      "Ġmess": 2483,
      "Ġtaken": 2484,
      "ĠMan": 2485,
      "ellect": 2486,
      "Ġpet": 2487,
      "ĠTr": 2488,
      "Ġdeer": 2489,
      "ables": 2490,
      "igeon": 2491,
      "Ġalive": 2492,
      "Ġgl": 2493,
      "Ġunf": 2494,
      "Ġclose": 2495,
      "Ġcaps": 2496,
      "Ġwrong": 2497,
      "selves": 2498,
      "Ġothers": 2499,
      "Ġbag": 2500,
      "Ġchees": 2501,
      "ĠUnicorns": 2502,
      "ĠSh": 2503,
      "member": 2504,
      "Ġtuxedo": 2505,
      "Ġelegant": 2506,
      "Ġknowledge": 2507,
      "Ġcrawling": 2508,
      "Ġpack": 2509,
      "Ġstakes": 2510,
      "Ġshocked": 2511,
      "Ġintellect": 2512,
      "oci": 2513,
      "Ġactually": 2514,
      "Ġpeacefully": 2515,
      "Ġmulti": 2516,
      "ĠSp": 2517,
      "Ġgrass": 2518,
      "aling": 2519,
      "Ġjob": 2520,
      "onight": 2521,
      "Ġcarry": 2522,
      "Ġenviron": 2523,
      "Ġcig": 2524,
      "Ġstay": 2525,
      "Ġeye": 2526,
      "Ġtruck": 2527,
      "Ġbranch": 2528,
      "Ġperfectly": 2529,
      "na": 2530,
      "Ġsof": 2531,
      "Ġsuspend": 2532,
      "umpty": 2533,
      "Ġburgers": 2534,
      "Ġmouse": 2535,
      "ĠFish": 2536,
      "Ġpicture": 2537,
      "ĠYour": 2538,
      "Ġtechnolog": 2539,
      "iting": 2540,
      "igs": 2541,
      "Ġtrad": 2542,
      "Ġanyone": 2543,
      "ror": 2544,
      "ream": 2545,
      "Ġbever": 2546,
      "\".": 2547,
      "Ġple": 2548,
      "Ġtools": 2549,
      "Ġbefore": 2550,
      "Ġmaster": 2551,
      "Ġobserving": 2552,
      "Ġexactly": 2553,
      "tice": 2554,
      "apunzel": 2555,
      "Ġtell": 2556,
      "Ġaccessories": 2557,
      "Ġcontro": 2558,
      "Ġtied": 2559,
      "ĠTheir": 2560,
      "Ġsmile": 2561,
      "tas": 2562,
      "Ġmind": 2563,
      "ators": 2564,
      "ipe": 2565,
      "Ġconducting": 2566,
      "Ġchatting": 2567,
      "Ġwal": 2568,
      "ĠFr": 2569,
      "Ġhalf": 2570,
      "hic": 2571,
      "pl": 2572,
      "Ġexpec": 2573,
      "aks": 2574,
      "Ġapart": 2575,
      "Ġnumber": 2576,
      "where": 2577,
      "Ġsession": 2578,
      "lled": 2579,
      "arly": 2580,
      "Ġdri": 2581,
      "ĠAl": 2582,
      "Ġsurv": 2583,
      "Ġslow": 2584,
      "ned": 2585,
      "Ġav": 2586,
      "Ġanimal": 2587,
      "Ġhamster": 2588,
      "Ġpushing": 2589,
      "Ġdefying": 2590,
      "line": 2591,
      "Ġeag": 2592,
      "Ġimport": 2593,
      "Ġmice": 2594,
      "ĠCow": 2595,
      "ĠAnts": 2596,
      "Ġbluff": 2597,
      "ared": 2598,
      "Ġdentist": 2599,
      "Ġunex": 2600,
      "ecue": 2601,
      "getables": 2602,
      "Ġvehic": 2603,
      "athered": 2604,
      "Ġskiing": 2605,
      "ward": 2606,
      "Ġask": 2607,
      "Ġconsidering": 2608,
      "Ġnothing": 2609,
      "Ġgambling": 2610,
      "Ġbowl": 2611,
      "Ġmythical": 2612,
      "Ġunexpected": 2613,
      "ĠBut": 2614,
      "Ġguy": 2615,
      "Ġcirc": 2616,
      "stakes": 2617,
      "lymp": 2618,
      "Ġkangaroo": 2619,
      "erm": 2620,
      "urb": 2621,
      "Ġwatering": 2622,
      "Ġstudio": 2623,
      "het": 2624,
      "Ġflightless": 2625,
      "Ġplayers": 2626,
      "ĠSeagulls": 2627,
      "lish": 2628,
      "rist": 2629,
      "tible": 2630,
      "itting": 2631,
      "Ġgig": 2632,
      "acles": 2633,
      "Ġmass": 2634,
      "aghet": 2635,
      "Ġmiss": 2636,
      "Ġaccident": 2637,
      "\"!": 2638,
      "vit": 2639,
      "Ġhour": 2640,
      "Ġglo": 2641,
      "Ġknows": 2642,
      "Ġattempting": 2643,
      "ĠLadies": 2644,
      "Ġcalmly": 2645,
      "aghetti": 2646,
      "ĠGo": 2647,
      "Ġelev": 2648,
      "Ġsnowy": 2649,
      "Ġladder": 2650,
      "ten": 2651,
      "Ġheav": 2652,
      "osp": 2653,
      "Ġhelmets": 2654,
      "Ġcouldn": 2655,
      "Ġsplash": 2656,
      "Ġjungle": 2657,
      "Ġspread": 2658,
      "Ġmakes": 2659,
      "Ġovers": 2660,
      "Ġfeel": 2661,
      "Ġturtle": 2662,
      "blem": 2663,
      "cape": 2664,
      "Ġherd": 2665,
      "Ġcrime": 2666,
      "Ġguard": 2667,
      "Ġfocus": 2668,
      "Ġtradition": 2669,
      "ult": 2670,
      "ĠNow": 2671,
      "Ġeffor": 2672,
      "Ġpalm": 2673,
      "Ġless": 2674,
      "Ġlady": 2675,
      "Ġintellectual": 2676,
      "Ġ1": 2677,
      "Ġsing": 2678,
      "Ġburn": 2679,
      "Ġcart": 2680,
      "Ġthemselves": 2681,
      "ĠEvery": 2682,
      "Ġlounge": 2683,
      "uti": 2684,
      "Ġposes": 2685,
      "lderly": 2686,
      "Ġgets": 2687,
      "Ġhiking": 2688,
      "Ġutens": 2689,
      "Ġtour": 2690,
      "ĠUs": 2691,
      "ri": 2692,
      "sters": 2693,
      "iate": 2694,
      "llig": 2695,
      "eddy": 2696,
      "Ġjet": 2697,
      "Ġbike": 2698,
      "ĠMe": 2699,
      "Ġumbrellas": 2700,
      "rup": 2701,
      "ĠWest": 2702,
      "Ġcasual": 2703,
      "Ġchainsaws": 2704,
      "Ġeffortless": 2705,
      "Ġseeing": 2706,
      "tered": 2707,
      "Ġdrag": 2708,
      "Ġoutfits": 2709,
      "Ġpsychi": 2710,
      "ĠGen": 2711,
      "Ġalligator": 2712,
      "Ġconver": 2713,
      "Ġacting": 2714,
      "Ġcoconut": 2715,
      "da": 2716,
      "Ġleis": 2717,
      "Ġbackyard": 2718,
      "Ġeffortlessly": 2719,
      "Ġstory": 2720,
      "Ġintellig": 2721,
      "oint": 2722,
      "Ġbust": 2723,
      "ental": 2724,
      "Ġpirates": 2725,
      "Ġpancakes": 2726,
      "Ġheavy": 2727,
      "itive": 2728,
      "ouring": 2729,
      "ourmet": 2730,
      "ibly": 2731,
      "Ġbriefcases": 2732,
      "Ġmir": 2733,
      "Ġcourse": 2734,
      "Ġgathering": 2735,
      "Ġassoci": 2736,
      "Ġconvertible": 2737,
      "Ġleisure": 2738,
      "Ġpin": 2739,
      "Ġcats": 2740,
      "Ġtelling": 2741,
      "Ġutensils": 2742,
      "ĠOur": 2743,
      "Ġlawn": 2744,
      "Ġwolf": 2745,
      "Ġstro": 2746,
      "ĠOlymp": 2747,
      "Ġblack": 2748,
      "uggle": 2749,
      "Ġperformance": 2750,
      "timate": 2751,
      "no": 2752,
      "lipp": 2753,
      "leyball": 2754,
      "Ġassociated": 2755,
      "uit": 2756,
      "Ġaff": 2757,
      "ovel": 2758,
      "Ġtherapy": 2759,
      "Ġbelie": 2760,
      "Ġrem": 2761,
      "ĠPigeons": 2762,
      "ĠRapunzel": 2763,
      "Ġentertain": 2764,
      "Ġwanted": 2765,
      "Ġeagerly": 2766,
      "Ġtick": 2767,
      "ĠSudd": 2768,
      "Ġshirts": 2769,
      "ĠArctic": 2770,
      "ĠSuddenly": 2771,
      "Ġanch": 2772,
      "Ġleading": 2773,
      "ital": 2774,
      "orill": 2775,
      "Ġrepl": 2776,
      "Ġspecial": 2777,
      "Ġsofa": 2778,
      "acking": 2779,
      "ĠWild": 2780,
      "ĠFor": 2781,
      "Ġtook": 2782,
      "Ġtoasting": 2783,
      "Ġpreparing": 2784,
      "ĠMice": 2785,
      "tains": 2786,
      "Ġmounted": 2787,
      "mir": 2788,
      "til": 2789,
      "Ġserving": 2790,
      "Ġstri": 2791,
      "Ġlarger": 2792,
      "Ġoversized": 2793,
      "Ġdest": 2794,
      "Ġcampfires": 2795,
      "Ġobjects": 2796,
      "Ġvolleyball": 2797,
      "Ġbon": 2798,
      "Ġexpl": 2799,
      "Ġproblem": 2800,
      "Ġrid": 2801,
      "Ġpaws": 2802,
      "mat": 2803,
      "sk": 2804,
      "unks": 2805,
      "Ġconversations": 2806,
      "Ġhelp": 2807,
      "eum": 2808,
      "ection": 2809,
      "Ġpigeon": 2810,
      "Ġtoday": 2811,
      "ĠCan": 2812,
      "Ġvarious": 2813,
      "Ġmuseum": 2814,
      "bread": 2815,
      "Ġcut": 2816,
      "Ġspaghetti": 2817,
      "Ġknife": 2818,
      "Ġpoli": 2819,
      "urban": 2820,
      "tional": 2821,
      "ggles": 2822,
      "antic": 2823,
      "Ġgoggles": 2824,
      "yer": 2825,
      "Ġcross": 2826,
      "Ġinc": 2827,
      "ĠWhat": 2828,
      "ingerbread": 2829,
      "Ġleast": 2830,
      "Ġfrequ": 2831,
      "ass": 2832,
      "Ġstars": 2833,
      "eting": 2834,
      "ouses": 2835,
      "Ġteac": 2836,
      "anced": 2837,
      "Ġrelaxing": 2838,
      "Ġbeam": 2839,
      "Ġchar": 2840,
      "Ġmel": 2841,
      "Ġworried": 2842,
      "Ġcommonly": 2843,
      "Ġanchor": 2844,
      "Ġneigh": 2845,
      "ably": 2846,
      "Ġlively": 2847,
      "eside": 2848,
      "omb": 2849,
      "Ġlead": 2850,
      "phin": 2851,
      "Ġsnail": 2852,
      "Ġapprec": 2853,
      "Ġsandwich": 2854,
      ",\"": 2855,
      "ata": 2856,
      "Ġchina": 2857,
      "Ġneedle": 2858,
      "licious": 2859,
      "Ġnutty": 2860,
      "form": 2861,
      "Ġtimes": 2862,
      "Ġcrown": 2863,
      "Ġcoff": 2864,
      "Ġbanana": 2865,
      "Ġimportant": 2866,
      "enting": 2867,
      "Ġpret": 2868,
      "Ġgigantic": 2869,
      "Ġgourmet": 2870,
      "ĠSorry": 2871,
      "Ġacrob": 2872,
      "Ġfreezing": 2873,
      "Ġbarbecue": 2874,
      "cal": 2875,
      "off": 2876,
      "Ġbra": 2877,
      "ĠTur": 2878,
      "Ġgener": 2879,
      "Ġdragon": 2880,
      "bow": 2881,
      "Ġten": 2882,
      "Ġchefs": 2883,
      "Ġpecu": 2884,
      "Ġduck": 2885,
      "orta": 2886,
      "rapped": 2887,
      "ĠEach": 2888,
      "abulous": 2889,
      "Ġpeculi": 2890,
      "istica": 2891,
      "Ġques": 2892,
      "Ġpeculiar": 2893,
      "iest": 2894,
      "Ġrestaurants": 2895,
      "belie": 2896,
      "Ġsal": 2897,
      "isible": 2898,
      "Ġbeer": 2899,
      "Ġdispla": 2900,
      "Ġcommun": 2901,
      "Ġblock": 2902,
      "ophistica": 2903,
      "Ġprob": 2904,
      "Ġlaws": 2905,
      "Ġlaptops": 2906,
      "Ġmassive": 2907,
      "Ġsophistica": 2908,
      "Ġpink": 2909,
      "eth": 2910,
      "arb": 2911,
      "atch": 2912,
      "Ġskyscrapers": 2913,
      "erv": 2914,
      "ank": 2915,
      "Ġel": 2916,
      "ĠMy": 2917,
      "Ġshirt": 2918,
      "Ġsound": 2919,
      "Ġnature": 2920,
      "Ġkids": 2921,
      "Ġtracks": 2922,
      "Ġrabbits": 2923,
      "ia": 2924,
      "Ġhaz": 2925,
      "Ġlevit": 2926,
      "ĠUFOs": 2927,
      "ler": 2928,
      "ope": 2929,
      "Ġgrilling": 2930,
      "Ġbackp": 2931,
      "Ġdiving": 2932,
      "ges": 2933,
      "Ġsch": 2934,
      "Ġtail": 2935,
      "ason": 2936,
      "Ġsidewalk": 2937,
      "Ġperio": 2938,
      "Ġgraceful": 2939,
      "Ġcastle": 2940,
      "Ġsurvive": 2941,
      "Ġbonfire": 2942,
      "go": 2943,
      "Ġbody": 2944,
      "Ġdeser": 2945,
      "iform": 2946,
      "Ġped": 2947,
      "Ġpans": 2948,
      "Ġshows": 2949,
      "Ġskating": 2950,
      "Ġmagical": 2951,
      "Ġpsychiat": 2952,
      "ĠOut": 2953,
      "Ġtutus": 2954,
      "Ġbeverages": 2955,
      "mon": 2956,
      "Ġuniform": 2957,
      "Ġskis": 2958,
      "Ġsafety": 2959,
      "Ġbeauti": 2960,
      "Ġinvisible": 2961,
      "Ġburning": 2962,
      "els": 2963,
      "Ġfires": 2964,
      "Ġdiscussions": 2965,
      "Ġladies": 2966,
      "Ġpresentation": 2967,
      "Ġfrequent": 2968,
      "Ġwatermel": 2969,
      "Ġcorner": 2970,
      "Ġpower": 2971,
      "Ġmanne": 2972,
      "ĠPo": 2973,
      "ances": 2974,
      "Ġhill": 2975,
      "Ġspect": 2976,
      "Ġdelicious": 2977,
      "ipes": 2978,
      "ĠEven": 2979,
      "ĠYes": 2980,
      "cti": 2981,
      "Ġseat": 2982,
      "ĠDin": 2983,
      "Ġexpect": 2984,
      "Ġapartment": 2985,
      "ĠTurtles": 2986,
      "belief": 2987,
      "Ġmail": 2988,
      "boys": 2989,
      "Ġgroo": 2990,
      "Ġfear": 2991,
      "ives": 2992,
      "Ġcacti": 2993,
      "Ġfeathered": 2994,
      "Ġfollow": 2995,
      "ieval": 2996,
      "Ġfabulous": 2997,
      "Ġtoddlers": 2998,
      "oods": 2999,
      "ĠIs": 3000,
      "Ġuntil": 3001,
      "Ġdisbelief": 3002,
      "Ġdolphin": 3003,
      "Ġvegetables": 3004,
      "Ġlands": 3005,
      "Ġpad": 3006,
      "Ġunivers": 3007,
      "Ġdead": 3008,
      "Ġexperience": 3009,
      "Ġtechnology": 3010,
      "Ġtraditional": 3011,
      "ument": 3012,
      "Ġlect": 3013,
      "Ġgrandm": 3014,
      "Ġcher": 3015,
      "ighting": 3016,
      "Ġdiver": 3017,
      "Ġpouring": 3018,
      "Ġrece": 3019,
      "Ġhear": 3020,
      "ĠSup": 3021,
      "Ġjump": 3022,
      "Ġcoord": 3023,
      "Ġclassroom": 3024,
      "Ġtalent": 3025,
      "Ġbed": 3026,
      "Ġdate": 3027,
      "Ġspot": 3028,
      "Ġwatersk": 3029,
      "Ġbelieve": 3030,
      "Ġwood": 3031,
      "Ġstories": 3032,
      "Ġsnacks": 3033,
      "ready": 3034,
      "ĠCowboys": 3035,
      "azed": 3036,
      "iss": 3037,
      "Ġshred": 3038,
      "Ġpaint": 3039,
      "Ġturtles": 3040,
      "Ġbucket": 3041,
      "Ġbeside": 3042,
      "Ġups": 3043,
      "Ġdelivery": 3044,
      "nual": 3045,
      "Ġcur": 3046,
      "Ġhon": 3047,
      "Ġlibrar": 3048,
      "Ġapron": 3049,
      "Ġpainting": 3050,
      "Ġunfazed": 3051,
      "Ġcherry": 3052,
      "Ġtries": 3053,
      "ĠNut": 3054,
      "Ġlifegu": 3055,
      "Ġgreen": 3056,
      "screen": 3057,
      "Ġusual": 3058,
      "ĠMove": 3059,
      "Ġlatte": 3060,
      "Ġmedieval": 3061,
      "Ġemployee": 3062,
      "Ġfix": 3063,
      "enture": 3064,
      "Ġtrunk": 3065,
      "ctop": 3066,
      "Ġwindows": 3067,
      "Ġincl": 3068,
      "Ġmarshmallow": 3069,
      "Ġbarn": 3070,
      "ences": 3071,
      "Ġselfie": 3072,
      "BQ": 3073,
      "Ġsol": 3074,
      "Ġresc": 3075,
      "ĠBBQ": 3076,
      "tively": 3077,
      "Ġwed": 3078,
      "Ġfig": 3079,
      "Ġincred": 3080,
      "yc": 3081,
      "ited": 3082,
      "Ġabduc": 3083,
      "tically": 3084,
      "ctopus": 3085,
      "Ġbecome": 3086,
      "Ġalready": 3087,
      "Ġtraps": 3088,
      "Ġsocial": 3089,
      "Ġcocktail": 3090,
      "Ġangel": 3091,
      "Ġelevator": 3092,
      "ah": 3093,
      "Ġpots": 3094,
      "Ġlim": 3095,
      "Ġteeth": 3096,
      "com": 3097,
      "Ġpurr": 3098,
      "Ġhall": 3099,
      "Ġthird": 3100,
      "Ġwheels": 3101,
      "ues": 3102,
      "ĠHorses": 3103,
      "Ġramp": 3104,
      "Ġpassing": 3105,
      "Ġedge": 3106,
      "uisine": 3107,
      "Ġheard": 3108,
      "Ġscar": 3109,
      "Ġgroceries": 3110,
      "yal": 3111,
      "Ġgingerbread": 3112,
      "Ġever": 3113,
      "Ġcheese": 3114,
      "Ġwalks": 3115,
      "Ġholds": 3116,
      "ency": 3117,
      "Ġmetal": 3118,
      "Ġsophisticated": 3119,
      "ula": 3120,
      "Ġcurr": 3121,
      "tics": 3122,
      "Ġrare": 3123,
      "Ġcape": 3124,
      "avig": 3125,
      "Ġforeground": 3126,
      "ĠZ": 3127,
      "Ġelderly": 3128,
      "ĠJack": 3129,
      "Ġcostumes": 3130,
      "fish": 3131,
      "loo": 3132,
      "ured": 3133,
      "Ġter": 3134,
      "Ġunicycles": 3135,
      "Ġtoaster": 3136,
      "Ġpasture": 3137,
      "time": 3138,
      "Ġcalled": 3139,
      "Ġmob": 3140,
      "Ġfields": 3141,
      "che": 3142,
      "izing": 3143,
      "uba": 3144,
      "Ġoutfit": 3145,
      "Ġballoons": 3146,
      "Ġtor": 3147,
      "ising": 3148,
      "ette": 3149,
      "Ġstret": 3150,
      "Ġassist": 3151,
      "Ġtend": 3152,
      "Ġnavig": 3153,
      "Ġgnomes": 3154,
      "ered": 3155,
      "Ġwolves": 3156,
      "Ġtrend": 3157,
      "ipment": 3158,
      "Ġequipment": 3159,
      "ait": 3160,
      "Ġtype": 3161,
      "work": 3162,
      "Ġacrobatic": 3163,
      "suits": 3164,
      "Ġplayer": 3165,
      "the": 3166,
      "Ġwrapped": 3167,
      "Ġsunscreen": 3168,
      "ĠEx": 3169,
      "Ġslide": 3170,
      "Ġplanets": 3171,
      "Ġindul": 3172,
      "Ġleisurely": 3173,
      "utes": 3174,
      "Ġchilling": 3175,
      "tives": 3176,
      "Ġfur": 3177,
      "Ġmooo": 3178,
      "Ġrug": 3179,
      "bble": 3180,
      "Ġaqu": 3181,
      "tile": 3182,
      "Ġproduc": 3183,
      "Ġbreakd": 3184,
      "ospital": 3185,
      "mar": 3186,
      "Ġeas": 3187,
      "ased": 3188,
      "Ġupright": 3189,
      "ately": 3190,
      "ĠLife": 3191,
      "ĠSuper": 3192,
      "Ġhospital": 3193,
      "Ġalley": 3194,
      "Ġmicrophones": 3195,
      "Ġrequired": 3196,
      "Ġbustling": 3197,
      "tise": 3198,
      "Ġmerma": 3199,
      "Ġtold": 3200,
      "ksh": 3201,
      "Ġcuisine": 3202,
      "Ġda": 3203,
      "Ġlaughing": 3204,
      "The": 3205,
      "stic": 3206,
      "Ġpat": 3207,
      "Ġwaving": 3208,
      "Ġexpertise": 3209,
      "llar": 3210,
      "Ġfeast": 3211,
      "ĠRep": 3212,
      "Ġfoot": 3213,
      "cting": 3214,
      "gn": 3215,
      "Ġwet": 3216,
      "oring": 3217,
      "Ġheart": 3218,
      "Ġstealing": 3219,
      "Ġplease": 3220,
      "Ġhy": 3221,
      "uding": 3222,
      "Ġsle": 3223,
      "Ġhoney": 3224,
      "Ġthin": 3225,
      "Ġknitting": 3226,
      "Ġmun": 3227,
      "Ġtrue": 3228,
      "Ġfalling": 3229,
      "Ġamazed": 3230,
      "eding": 3231,
      "lies": 3232,
      "Ġcatching": 3233,
      "Ġphysics": 3234,
      "Ġroutines": 3235,
      "host": 3236,
      "Ġsum": 3237,
      "Ġmarket": 3238,
      "Ġhitch": 3239,
      "Ġelse": 3240,
      "Ġtoss": 3241,
      "Ġeither": 3242,
      "Ġplaced": 3243,
      "ĠDo": 3244,
      "Ġspeak": 3245,
      "ĠUsually": 3246,
      "Ġpsychiatrist": 3247,
      "ĠDinosaur": 3248,
      "lit": 3249,
      "Ġhouses": 3250,
      "Ġinj": 3251,
      "acu": 3252,
      "ado": 3253,
      "ĠCon": 3254,
      "ĠFire": 3255,
      "Ġvie": 3256,
      "Ġschool": 3257,
      "do": 3258,
      "zy": 3259,
      "Ġtonight": 3260,
      "Ġmany": 3261,
      "Ġknives": 3262,
      "Ġoc": 3263,
      "ĠUn": 3264,
      "Ġsnowman": 3265,
      "âĢĶ": 3266,
      "ckey": 3267,
      "uce": 3268,
      "Ġexting": 3269,
      "ĠDinosaurs": 3270,
      "ala": 3271,
      "Ġbeings": 3272,
      "verage": 3273,
      "Ġexpert": 3274,
      "Ġdelivering": 3275,
      "cking": 3276,
      "vious": 3277,
      "yes": 3278,
      "Ġhind": 3279,
      "eck": 3280,
      "Ġsnowmen": 3281,
      "Ġputting": 3282,
      "Ġblankets": 3283,
      "dies": 3284,
      "ners": 3285,
      "ĠQ": 3286,
      "attered": 3287,
      "Ġshock": 3288,
      "ĠSn": 3289,
      "Ġintr": 3290,
      "Ġclean": 3291,
      "ech": 3292,
      "Ġworry": 3293,
      "Ġcell": 3294,
      "Ġvehicle": 3295,
      "Ġperiod": 3296,
      "Ġide": 3297,
      "ened": 3298,
      "phy": 3299,
      "Ġcapab": 3300,
      "impan": 3301,
      "Ġmirror": 3302,
      "Ġwar": 3303,
      "Ġfour": 3304,
      "Ġpractic": 3305,
      "Ġbuildings": 3306,
      "Ġscientists": 3307,
      "Ġdestro": 3308,
      "tub": 3309,
      "Ġseeming": 3310,
      "Ġinvol": 3311,
      "Ġrules": 3312,
      "gr": 3313,
      "Ġred": 3314,
      "Ġbarber": 3315,
      "Ġwedding": 3316,
      "impanze": 3317,
      "Moo": 3318,
      "hus": 3319,
      "Ġweird": 3320,
      "Ġjam": 3321,
      "Ġskyd": 3322,
      "Ġcannon": 3323,
      "Ġtransport": 3324,
      "ombies": 3325,
      "Ġseemingly": 3326,
      "Ġbees": 3327,
      "Ġstool": 3328,
      "ided": 3329,
      "Ġmead": 3330,
      "Ġmountains": 3331,
      "boards": 3332,
      "acuum": 3333,
      "gra": 3334,
      "Ġlamp": 3335,
      "Ġarti": 3336,
      "Ġcompan": 3337,
      "ĠGr": 3338,
      "Ġfins": 3339,
      "Ġdental": 3340,
      "Ġdone": 3341,
      "Ġexecu": 3342,
      "Ġswarm": 3343,
      "Ġbubble": 3344,
      "Ġhockey": 3345,
      "Ġmarath": 3346,
      "Ġwinning": 3347,
      "Ġgold": 3348,
      "Ġeyes": 3349,
      "ĠPower": 3350,
      "ĠBo": 3351,
      "Ġbooth": 3352,
      "Ġskelet": 3353,
      "Ġposition": 3354,
      "Ġcannonball": 3355,
      "uly": 3356,
      "head": 3357,
      "Ġlocked": 3358,
      "Ġstove": 3359,
      "Ġstabb": 3360,
      "anta": 3361,
      "Ġhandle": 3362,
      "Ġbalcon": 3363,
      "Ġlegal": 3364,
      "Ġpolar": 3365,
      "Ġmatch": 3366,
      "how": 3367,
      "Ġpants": 3368,
      "Ġpond": 3369,
      "Ġlunch": 3370,
      "Ġyet": 3371,
      "ĠRabb": 3372,
      "Ġinterested": 3373,
      "Ġdelicate": 3374,
      "bal": 3375,
      "Ġballoon": 3376,
      "Ġchildren": 3377,
      "ĠSanta": 3378,
      "Ġrad": 3379,
      "Ġwinter": 3380,
      "Ġattentively": 3381,
      "Ġstabbed": 3382,
      "Ġbalcony": 3383,
      "Ġliz": 3384,
      "Ġtrunks": 3385,
      "Ġcoat": 3386,
      "Ġelement": 3387,
      "Ġconfid": 3388,
      "ĠToddlers": 3389,
      "Ġmonoc": 3390,
      "husi": 3391,
      "ornado": 3392,
      "Ġgrim": 3393,
      "tes": 3394,
      "Ġbeak": 3395,
      "alleng": 3396,
      "Ġchange": 3397,
      "Ġabs": 3398,
      "Ġvacuum": 3399,
      "airs": 3400,
      "Ġbrows": 3401,
      "Ġaquatic": 3402,
      "hi": 3403,
      "ormous": 3404,
      "Ġtrapped": 3405,
      "Ġmatter": 3406,
      "Ġfarmer": 3407,
      "ales": 3408,
      "Ġpur": 3409,
      "Ġkites": 3410,
      "Ġhappening": 3411,
      "ĠOutside": 3412,
      "Ġbrowsing": 3413,
      "Point": 3414,
      "Ġsip": 3415,
      "Ġye": 3416,
      "Ġord": 3417,
      "Ġplant": 3418,
      "Ġserve": 3419,
      "Ġadmir": 3420,
      "Ġbathtub": 3421,
      "Ġjoin": 3422,
      "Ġenthusi": 3423,
      "ĠPowerPoint": 3424,
      "ipped": 3425,
      "Ġannual": 3426,
      "Ġreaper": 3427,
      "Ġmachines": 3428,
      "ĠDeath": 3429,
      "Ġlecture": 3430,
      "Ġupset": 3431,
      "Ġlifeguard": 3432,
      "Ġtransportation": 3433,
      "Ġskeleton": 3434,
      "Ġroyal": 3435,
      "ĠBoth": 3436,
      "ĠAnim": 3437,
      "Ġsuspenders": 3438,
      "ng": 3439,
      "Ġid": 3440,
      "Ġwent": 3441,
      "atable": 3442,
      "ury": 3443,
      "Ġlikely": 3444,
      "Ġenormous": 3445,
      "estr": 3446,
      "Ġproper": 3447,
      "Ġkey": 3448,
      "Ġpinata": 3449,
      "Ġteddy": 3450,
      "Ġtattered": 3451,
      "Ġwears": 3452,
      "Ġsandbox": 3453,
      "Ġlaughter": 3454,
      "Ġjackets": 3455,
      "cher": 3456,
      "ost": 3457,
      "Ġaverage": 3458,
      "Ġwife": 3459,
      "Ġcop": 3460,
      "ĠGet": 3461,
      "Ġflames": 3462,
      "Ġsmoking": 3463,
      "Ġhazmat": 3464,
      "Ġchalleng": 3465,
      "eces": 3466,
      "Ġrob": 3467,
      "Ġbenches": 3468,
      "Ġthrowing": 3469,
      "Ġclip": 3470,
      "Ġangels": 3471,
      "ior": 3472,
      "Ġghost": 3473,
      "Ġled": 3474,
      "Ġblender": 3475,
      "Ġsweet": 3476,
      "Ġhope": 3477,
      "Ġdisappear": 3478,
      "ĠGenie": 3479,
      "Ġpil": 3480,
      "ĠSl": 3481,
      "terly": 3482,
      "my": 3483,
      "vies": 3484,
      "Ġul": 3485,
      "Ġpile": 3486,
      "Ġinfl": 3487,
      "Ġprin": 3488,
      "Ġappreciate": 3489,
      "Ġultimate": 3490,
      "bers": 3491,
      "ieces": 3492,
      "ĠAt": 3493,
      "imate": 3494,
      "ĠWater": 3495,
      "ires": 3496,
      "Ġcolle": 3497,
      "Ġcostume": 3498,
      "dition": 3499,
      "ee": 3500,
      "Ġearth": 3501,
      "Ġcaffe": 3502,
      "Ġserv": 3503,
      "Ġbeautiful": 3504,
      "Ġoutlines": 3505,
      "Ġtruly": 3506,
      "ormally": 3507,
      "Ġinterrup": 3508,
      "Ġmilksh": 3509,
      "Ġevents": 3510,
      "Ġtentacles": 3511,
      "Ġwatermelon": 3512,
      "coun": 3513,
      "uzz": 3514,
      "Ġtornado": 3515,
      "cast": 3516,
      "Ġsqu": 3517,
      "irt": 3518,
      "acity": 3519,
      "ady": 3520,
      "Ġbodies": 3521,
      "angled": 3522,
      "Ġneighbor": 3523,
      "pes": 3524,
      "istic": 3525,
      "ĠNormally": 3526,
      "ĠGod": 3527,
      "Ġadmiring": 3528,
      "dling": 3529,
      "Ġgone": 3530,
      "Ġguys": 3531,
      "Ġimprob": 3532,
      "Ġimprobable": 3533,
      "food": 3534,
      "Ġjuggle": 3535,
      "ĠOh": 3536,
      "Ġpod": 3537,
      "Ġtables": 3538,
      "Ġplate": 3539,
      "Ġcapable": 3540,
      "Ġlonger": 3541,
      "Ġsuitca": 3542,
      "ĠPl": 3543,
      "Ġdesign": 3544,
      "Ġslices": 3545,
      "Ġslipp": 3546,
      "Ġstep": 3547,
      "Ġcogn": 3548,
      "Ġprac": 3549,
      "ĠKangaroo": 3550,
      "Ġsweater": 3551,
      "ĠAnimals": 3552,
      "Ġtan": 3553,
      "ĠOr": 3554,
      "Ġexcept": 3555,
      "thr": 3556,
      "Ġsteep": 3557,
      "Ġhelmet": 3558,
      "Ġintelligent": 3559,
      "Ġview": 3560,
      "Ġcognitive": 3561,
      "Ġstock": 3562,
      "ĠWait": 3563,
      "Ġsil": 3564,
      "ests": 3565,
      "irl": 3566,
      "etho": 3567,
      "Ġkick": 3568,
      "Ġcapacity": 3569,
      "ĠKn": 3570,
      "Ġrainbow": 3571,
      "Ġties": 3572,
      "ĠMerma": 3573,
      "Ġprec": 3574,
      "Ġrobe": 3575,
      "Ġmarching": 3576,
      "Ġliterature": 3577,
      "Ġchillin": 3578,
      "ĠRemember": 3579,
      "Ġskateboarding": 3580,
      "Ġintricate": 3581,
      "ton": 3582,
      "ara": 3583,
      "Ġlear": 3584,
      "Ġdeath": 3585,
      "Ġpracticing": 3586,
      "ware": 3587,
      "Ġserved": 3588,
      "Ġseriously": 3589,
      "Ġmermaid": 3590,
      "orke": 3591,
      "Ġmill": 3592,
      "Ġstacks": 3593,
      "Ġparks": 3594,
      "Ġskin": 3595,
      "Ġpersonal": 3596,
      "ught": 3597,
      "Ġreptile": 3598,
      "Ġjacket": 3599,
      "Ġfollowing": 3600,
      "Ġtorches": 3601,
      "ĠKangaroos": 3602,
      "Ġbee": 3603,
      "Ġhappily": 3604,
      "Ġeverything": 3605,
      "Ġconfidently": 3606,
      "rees": 3607,
      "ĠAm": 3608,
      "Ġrod": 3609,
      "aching": 3610,
      "Ġmem": 3611,
      "ĠFe": 3612,
      "take": 3613,
      "Ġblend": 3614,
      "Ġflipping": 3615,
      "Ġturns": 3616,
      "Ġclearly": 3617,
      "Ġadvanced": 3618,
      "Ġwarm": 3619,
      "scope": 3620,
      "Ġrush": 3621,
      "Ġexc": 3622,
      "Ġscuba": 3623,
      "ĠWhy": 3624,
      "using": 3625,
      "Ġcause": 3626,
      "adise": 3627,
      "Ġkind": 3628,
      "Ġdem": 3629,
      "Ġmain": 3630,
      "ucking": 3631,
      "Ġwashing": 3632,
      "Ġdecided": 3633,
      "Ġtalents": 3634,
      "Ġdaily": 3635,
      "Ġgall": 3636,
      "Ġgas": 3637,
      "omm": 3638,
      "Ġcact": 3639,
      "Ġhimself": 3640,
      "stered": 3641,
      "Ġquack": 3642,
      "times": 3643,
      "Ġhabitat": 3644,
      "inct": 3645,
      "tiqu": 3646,
      "Ġinner": 3647,
      "Ġlives": 3648,
      "Ġseats": 3649,
      "ĠMermaids": 3650,
      "Ġdream": 3651,
      "Ġlights": 3652,
      "Ġbeard": 3653,
      "Ġshovel": 3654,
      "Ġstudents": 3655,
      "Ġreplaced": 3656,
      "Ġcactus": 3657,
      "inery": 3658,
      "Ġfil": 3659,
      "Ġfact": 3660,
      "Ġmas": 3661,
      "ides": 3662,
      "ength": 3663,
      "akers": 3664,
      "Ġshops": 3665,
      "Ġanything": 3666,
      "Ġthrow": 3667,
      "Ġgenerally": 3668,
      "Ġoctopus": 3669,
      "Ġcash": 3670,
      "Ġmachinery": 3671,
      "Ġpipes": 3672,
      "lest": 3673,
      "Ġlay": 3674,
      "Ġstack": 3675,
      "Ġparked": 3676,
      "Ġsnorke": 3677,
      "Ġattached": 3678,
      "Ġbreakdancing": 3679,
      "Ġfis": 3680,
      "Ġmoney": 3681,
      "Ġroman": 3682,
      "Ġintently": 3683,
      "ĠMag": 3684,
      "body": 3685,
      "Ġbathroom": 3686,
      "Ġobject": 3687,
      "Ġquestion": 3688,
      "ĠSuperhero": 3689,
      "Ġmeadow": 3690,
      "Ġ2": 3691,
      "Ġbad": 3692,
      "ĠAdd": 3693,
      "Ġsecon": 3694,
      "Ġmastered": 3695,
      "boy": 3696,
      "gging": 3697,
      "Ġdefy": 3698,
      "Ġsupport": 3699,
      "Ġsuperheroes": 3700,
      "Ġmachine": 3701,
      "Ġsir": 3702,
      "ister": 3703,
      "Ġcheering": 3704,
      "Ġsoda": 3705,
      "Ġproj": 3706,
      "ĠInter": 3707,
      "Ġbowling": 3708,
      "Ġgenie": 3709,
      "inder": 3710,
      "Ġplaque": 3711,
      "ĠDJ": 3712,
      "Ġcement": 3713,
      "Ġflav": 3714,
      "Ġdetective": 3715,
      "Ġdeterm": 3716,
      "ek": 3717,
      "Ġtun": 3718,
      "Ġboss": 3719,
      "Ġnose": 3720,
      "Ġcigars": 3721,
      "Ġbluffing": 3722,
      "Ġcoordination": 3723,
      "oid": 3724,
      "ades": 3725,
      "Ġcomf": 3726,
      "Ġflush": 3727,
      "Ġsupp": 3728,
      "Ġwaddle": 3729,
      "Ġmannequ": 3730,
      "umping": 3731,
      "Ġheat": 3732,
      "ĠSur": 3733,
      "ĠHer": 3734,
      "ĠMay": 3735,
      "Ġsurprising": 3736,
      "Ġconcert": 3737,
      "Ġcircle": 3738,
      "Ġgorill": 3739,
      "Ġboom": 3740,
      "iously": 3741,
      "Ġsandy": 3742,
      "Ġjobs": 3743,
      "Ġbigger": 3744,
      "Ġenvironments": 3745,
      "ĠFirefighters": 3746,
      "Ġskydiving": 3747,
      "Ġpodium": 3748,
      "uity": 3749,
      "anst": 3750,
      "Ġconcept": 3751,
      "Ġexh": 3752,
      "Ġsomehow": 3753,
      "Ġeverywhere": 3754,
      "Ġspacesuits": 3755,
      "Ġlawyer": 3756,
      "Ġemployees": 3757,
      "anstalk": 3758,
      "bur": 3759,
      "Ġnote": 3760,
      "Ġfew": 3761,
      "Ġrecipe": 3762,
      "ĠForget": 3763,
      "Ġradi": 3764,
      "Ġgarb": 3765,
      "uting": 3766,
      "orning": 3767,
      "Ġscreen": 3768,
      "Ġspeech": 3769,
      "Ġextraterrestrials": 3770,
      "Ġexamination": 3771,
      "Ġexamining": 3772,
      "fast": 3773,
      "vision": 3774,
      "Ġgala": 3775,
      "ĠTalk": 3776,
      "Ġshoulder": 3777,
      "Ġhovering": 3778,
      "entif": 3779,
      "Ġtelephone": 3780,
      "Ġpolitical": 3781,
      "ĠSuperheroes": 3782,
      "Ġgarbage": 3783,
      "dom": 3784,
      "pher": 3785,
      "rin": 3786,
      "ism": 3787,
      "Ġcla": 3788,
      "Ġdun": 3789,
      "Ġdoc": 3790,
      "Ġbiting": 3791,
      "ĠOlympic": 3792,
      "Ġneighborh": 3793,
      "00": 3794,
      "tivity": 3795,
      "Ġdough": 3796,
      "Ġmasterp": 3797,
      "Ġwaterski": 3798,
      "fect": 3799,
      "vine": 3800,
      "ith": 3801,
      "Ġnon": 3802,
      "Ġchamp": 3803,
      "Ġskilled": 3804,
      "Ġmovies": 3805,
      "Ġcolored": 3806,
      "Ġpatiently": 3807,
      "Ġfocused": 3808,
      "Ġshredder": 3809,
      "Ġfully": 3810,
      "lls": 3811,
      "Ġdeal": 3812,
      "ĠLions": 3813,
      "Ġextremely": 3814,
      "Ġcontrol": 3815,
      "Ġservice": 3816,
      "light": 3817,
      "Ġant": 3818,
      "Ġath": 3819,
      "rag": 3820,
      "Ġmotiv": 3821,
      "Ġextinct": 3822,
      "tastic": 3823,
      "Ġcaffeine": 3824,
      "Ġtou": 3825,
      "Ġroof": 3826,
      "Ġsuc": 3827,
      "Ġsteering": 3828,
      "Ġsuburban": 3829,
      "Ġpointing": 3830,
      "Ġaccidentally": 3831,
      "Ġocc": 3832,
      "ote": 3833,
      "opping": 3834,
      "Ġfruity": 3835,
      "Ġdrones": 3836,
      "Ġbread": 3837,
      "Ġsteady": 3838,
      "Ġmatters": 3839,
      "mic": 3840,
      "ution": 3841,
      "ĠDumpty": 3842,
      "Ġencoun": 3843,
      "Ġshepher": 3844,
      "Ġvacations": 3845,
      "ĠToday": 3846,
      "Ġhunter": 3847,
      "Ġenvironment": 3848,
      "Ġgrandmother": 3849,
      "Ġmarathon": 3850,
      "look": 3851,
      "Ġharm": 3852,
      "roduc": 3853,
      "izard": 3854,
      "ĠLe": 3855,
      "Ġrefined": 3856,
      "Ġlandscape": 3857,
      "market": 3858,
      "Ġlizard": 3859,
      "Ġclipboard": 3860,
      "ĠMagic": 3861,
      "try": 3862,
      "uish": 3863,
      "Ġfight": 3864,
      "Ġdrunk": 3865,
      "Ġbeachball": 3866,
      "itionally": 3867,
      "Ġsupermarket": 3868,
      "Ġemo": 3869,
      "Ġprobably": 3870,
      "Ġmom": 3871,
      "Ġmorning": 3872,
      "Ġstocks": 3873,
      "Ġrema": 3874,
      "ĠSat": 3875,
      "ĠHumpty": 3876,
      "Ġflip": 3877,
      "Ġchaos": 3878,
      "Ġstriking": 3879,
      "Ġmannequin": 3880,
      "Ġpen": 3881,
      "arr": 3882,
      "Ġring": 3883,
      "Ġcapes": 3884,
      "Ġnowhere": 3885,
      "Ġdistance": 3886,
      "Ġnest": 3887,
      "Ġleash": 3888,
      "Ġmoooo": 3889,
      "Ġwerew": 3890,
      "Ġturned": 3891,
      "Ġhalo": 3892,
      "Ġsingle": 3893,
      "ĠQu": 3894,
      "Ġbaby": 3895,
      "Ġstrategies": 3896,
      "Ġromantic": 3897,
      "ĠAdditionally": 3898,
      "Ġshepherd": 3899,
      "Ġround": 3900,
      "Ġbla": 3901,
      "Ġga": 3902,
      "Ġstetho": 3903,
      "Ġcustomer": 3904,
      "Ġstrategy": 3905,
      "ĠRepunzel": 3906,
      "ĠRabbits": 3907,
      "aving": 3908,
      "cr": 3909,
      "ups": 3910,
      "airy": 3911,
      "bbling": 3912,
      "Ġextinguish": 3913,
      "Ġinflatable": 3914,
      "Ġboombox": 3915,
      "orite": 3916,
      "ĠWatch": 3917,
      "Ġplates": 3918,
      "Ġfresh": 3919,
      "Ġstarts": 3920,
      "Ġfilm": 3921,
      "ĠSatan": 3922,
      "Ġbro": 3923,
      "erse": 3924,
      "Ġje": 3925,
      "Ġparadise": 3926,
      "Ġtwist": 3927,
      "Ġembr": 3928,
      "Ġdirect": 3929,
      "Ġshape": 3930,
      "Ġstethoscope": 3931,
      "Ġdrop": 3932,
      "Ġgest": 3933,
      "Ġpoint": 3934,
      "Ġbutter": 3935,
      "Ġarg": 3936,
      "Ġtemp": 3937,
      "Ġhiker": 3938,
      "ĠTrump": 3939,
      "Ġdriver": 3940,
      "Ġtossing": 3941,
      "mate": 3942,
      "sty": 3943,
      "ĠMoses": 3944,
      "Ġsave": 3945,
      "Ġdinosaurs": 3946,
      "Ġcoffin": 3947,
      "Ġdisplay": 3948,
      "hips": 3949,
      "Ġfel": 3950,
      "Ġphones": 3951,
      "ĠSpace": 3952,
      "estrians": 3953,
      "Ġsecond": 3954,
      "Ġsized": 3955,
      "Ġpul": 3956,
      "Ġnice": 3957,
      "ict": 3958,
      "Ġstun": 3959,
      "Ġchoice": 3960,
      "Ġexecutives": 3961,
      "lookers": 3962,
      "raid": 3963,
      "ĠFro": 3964,
      "Ġvide": 3965,
      "bby": 3966,
      "Ġafraid": 3967,
      "Ġhabitats": 3968,
      "Ġmunching": 3969,
      "cut": 3970,
      "Ġela": 3971,
      "Ġsuccess": 3972,
      "xy": 3973,
      "iming": 3974,
      "Ġlif": 3975,
      "Ġcondition": 3976,
      "Ġcluck": 3977,
      "Ġpose": 3978,
      "Ġvo": 3979,
      "Ġsliding": 3980,
      "Ġshower": 3981,
      "Ġhappens": 3982,
      "Ġstreets": 3983,
      "Ġentertainment": 3984,
      "Ġexpertly": 3985,
      "Ġpulls": 3986,
      "Ġfa": 3987,
      "Ġmot": 3988,
      "stra": 3989,
      "Ġallow": 3990,
      "Ġtrophy": 3991,
      "Ġmug": 3992,
      "Ġpuzz": 3993,
      "owl": 3994,
      "Ġspi": 3995,
      "Ġswinging": 3996,
      "ĠJuggling": 3997,
      "Ġwasn": 3998,
      "Ġowner": 3999,
      "dered": 4000,
      "Ġindust": 4001,
      "Ġtelevision": 4002,
      "Ġbun": 4003,
      "Ġpieces": 4004,
      "ĠTe": 4005,
      "Ġjerse": 4006,
      "Ġparach": 4007,
      "Ġswimsuits": 4008,
      "ified": 4009,
      "Ġjetp": 4010,
      "Ġpigs": 4011,
      "Ġrese": 4012,
      "anted": 4013,
      "ĠRo": 4014,
      "Ġscared": 4015,
      "Ġelegance": 4016,
      "Ġaddress": 4017,
      "Ġdeserted": 4018,
      "Ġgrooving": 4019,
      "tiquette": 4020,
      "Ġetiquette": 4021,
      "Ġquar": 4022,
      "Ġevent": 4023,
      "Ġprecision": 4024,
      "Ġdish": 4025,
      "Ġgirl": 4026,
      "robe": 4027,
      "Ġcaught": 4028,
      "Ġliterary": 4029,
      "Ġfrogs": 4030,
      "Ġfisher": 4031,
      "Ġmagn": 4032,
      "Ġhost": 4033,
      "Ġbreaking": 4034,
      "borate": 4035,
      "Ġleader": 4036,
      "Ġassistant": 4037,
      "Ġelaborate": 4038,
      "ped": 4039,
      "wh": 4040,
      "ĠTime": 4041,
      "ops": 4042,
      "ĠSy": 4043,
      "rought": 4044,
      "Ġbringing": 4045,
      "Ġphot": 4046,
      "Ġformation": 4047,
      "Ġmotivational": 4048,
      "eing": 4049,
      "ĠIce": 4050,
      "Ġyear": 4051,
      "izards": 4052,
      "pecting": 4053,
      "Ġshaped": 4054,
      "cts": 4055,
      "Ġfac": 4056,
      "Ġmime": 4057,
      "Ġlang": 4058,
      "amas": 4059,
      "Ġjokes": 4060,
      "Ġeggs": 4061,
      "ĠSnow": 4062,
      "Ġlangu": 4063,
      "Ġbin": 4064,
      "Ġhorn": 4065,
      "Ġjumping": 4066,
      "Ġglobal": 4067,
      "thru": 4068,
      "oke": 4069,
      "pet": 4070,
      "wear": 4071,
      "Ġbrought": 4072,
      "Ġforming": 4073,
      "Ġspin": 4074,
      "ected": 4075,
      "Ġexec": 4076,
      "overed": 4077,
      "Ġcreate": 4078,
      "etti": 4079,
      "Ġwhite": 4080,
      "Ġskill": 4081,
      "Ġcheer": 4082,
      "Ġchest": 4083,
      "ancial": 4084,
      "Ġblowing": 4085,
      "Ġstrand": 4086,
      "ential": 4087,
      "Ġnaturally": 4088,
      "Ġacrobatics": 4089,
      "gar": 4090,
      "nis": 4091,
      "Ġmater": 4092,
      "Ġkid": 4093,
      "Ġmeans": 4094,
      "Ġsauc": 4095,
      ").": 4096,
      "?\"": 4097,
      "comes": 4098,
      "Ġostr": 4099,
      "ĠBeh": 4100,
      "ĠMoooo": 4101,
      "Ġconcerned": 4102,
      "Ġexperiments": 4103,
      "ham": 4104,
      "ĠTrees": 4105,
      "ural": 4106,
      "Ġordered": 4107,
      "Ġvend": 4108,
      "club": 4109,
      "Ġconduct": 4110,
      "Ġpretty": 4111,
      "Ġneighborhood": 4112,
      "ique": 4113,
      "Ġfav": 4114,
      "Ġdue": 4115,
      "llow": 4116,
      "Ġsite": 4117,
      "Ġnightclub": 4118,
      "Ġresist": 4119,
      "Ġmeaning": 4120,
      "Ġsummer": 4121,
      "ĠMagicians": 4122,
      "band": 4123,
      "Ġname": 4124,
      "Ġju": 4125,
      "Ġdays": 4126,
      "Ġvisible": 4127,
      "Ġflamboy": 4128,
      "Ġ10": 4129,
      "Ġdetermined": 4130,
      "ring": 4131,
      "tom": 4132,
      "Ġunless": 4133,
      "ĠDrag": 4134,
      "Ġtravel": 4135,
      "Ġpools": 4136,
      "Ġpeaceful": 4137,
      "Ġalongside": 4138,
      "col": 4139,
      "hol": 4140,
      "mph": 4141,
      "sic": 4142,
      "Ġ9": 4143,
      "Ġbets": 4144,
      "Ġremember": 4145,
      "Ġorche": 4146,
      "Ġshot": 4147,
      "Ġspark": 4148,
      "Ġcones": 4149,
      "Ġroam": 4150,
      "Ġsnack": 4151,
      "Ġprop": 4152,
      "Ġnotice": 4153,
      "Ġhoof": 4154,
      "Ġshooting": 4155,
      "Ġsuitcase": 4156,
      "Ġboo": 4157,
      "Ġbacks": 4158,
      "Ġbeat": 4159,
      "Ġbecomes": 4160,
      "Ġkite": 4161,
      "Ġacts": 4162,
      "Ġdeck": 4163,
      "Ġwaddling": 4164,
      "Ġuniverse": 4165,
      "Ġterr": 4166,
      "ĠGrand": 4167,
      "Ġgallery": 4168,
      "Ġjerseys": 4169,
      "animate": 4170,
      "Ġgowns": 4171,
      "Ġrefe": 4172,
      "Ġmane": 4173,
      "Ġkill": 4174,
      "Ġtrip": 4175,
      "Ġappla": 4176,
      "Ġhotd": 4177,
      "impanzees": 4178,
      "Ġvendor": 4179,
      "ĠDragons": 4180,
      "ista": 4181,
      "Ġparr": 4182,
      "Ġcoolest": 4183,
      "ĠEveryone": 4184,
      "ĠFrogs": 4185,
      "oon": 4186,
      "ushed": 4187,
      "Ġlass": 4188,
      "Ġpassion": 4189,
      "Ġrecord": 4190,
      "Ġempty": 4191,
      "ĠPole": 4192,
      "uild": 4193,
      "Ġsold": 4194,
      "Ġstate": 4195,
      "etch": 4196,
      "ults": 4197,
      "Ġgrow": 4198,
      "ifying": 4199,
      "Ġdoctors": 4200,
      "Ġeveryday": 4201,
      "Ġpeak": 4202,
      "Ġmisch": 4203,
      "Ġpoints": 4204,
      "Ġpulled": 4205,
      "Ġroll": 4206,
      "stein": 4207,
      "Ġbreakfast": 4208,
      "ĠâĢľ": 4209,
      "Ġasked": 4210,
      "Ġtennis": 4211,
      "Ġhitchhi": 4212,
      "Ġfisherman": 4213,
      "iety": 4214,
      "people": 4215,
      "ises": 4216,
      "ished": 4217,
      "Ġwhist": 4218,
      "Ġplanet": 4219,
      "Ġdecor": 4220,
      "Ġslippers": 4221,
      "Ġencounter": 4222,
      "down": 4223,
      "wild": 4224,
      "Ġtest": 4225,
      "Ġbars": 4226,
      "Ġinstruc": 4227,
      "ato": 4228,
      "acy": 4229,
      "Ġwhis": 4230,
      "Ġseason": 4231,
      "Ġchart": 4232,
      "Ġcoats": 4233,
      "ĠNew": 4234,
      "Ġmenus": 4235,
      "Ġfinancial": 4236,
      "Ġstrategic": 4237,
      "Ġreaching": 4238,
      "Ġgorilla": 4239,
      "iet": 4240,
      "veng": 4241,
      "Ġpress": 4242,
      "Ġpick": 4243,
      "Ġblind": 4244,
      "Ġwriting": 4245,
      "Ġstylish": 4246,
      "Ġll": 4247,
      "Ġtrou": 4248,
      "owess": 4249,
      "Ġonlookers": 4250,
      "chal": 4251,
      "Ġraise": 4252,
      "Ġprowess": 4253,
      "Ġpossibly": 4254,
      "Ġmultitas": 4255,
      "Ġdesigned": 4256,
      "Ġmasterpiece": 4257,
      "Ġnonchal": 4258,
      "Ġfacial": 4259,
      "onna": 4260,
      "Ġwants": 4261,
      "tail": 4262,
      "ĠLast": 4263,
      "Ġreads": 4264,
      "ĠNe": 4265,
      "Ġimage": 4266,
      "Ġhaircut": 4267,
      "Ġactual": 4268,
      "Ġhambur": 4269,
      "Ġburger": 4270,
      "Ġunicorns": 4271,
      "Ġindulge": 4272,
      "Ġledge": 4273,
      "Ġdam": 4274,
      "Ġlemon": 4275,
      "Ġheld": 4276,
      "Ġconstruc": 4277,
      "asts": 4278,
      "ously": 4279,
      "Ġcozy": 4280,
      "Ġfishy": 4281,
      "anged": 4282,
      "Ġplans": 4283,
      "Ġlobby": 4284,
      "Ġpasseng": 4285,
      "Ġselfies": 4286,
      "Ġnonchalant": 4287,
      "sp": 4288,
      "Ġmoving": 4289,
      "Ġanimated": 4290,
      "ĠVe": 4291,
      "Ġlevitating": 4292,
      "Ġbackpack": 4293,
      "Ġwoodland": 4294,
      "Ġincredibly": 4295,
      "ĠSlow": 4296,
      "Ġinse": 4297,
      "Ġbeanstalk": 4298,
      "Ġliqu": 4299,
      "Ġrise": 4300,
      "aged": 4301,
      "Ġelect": 4302,
      "Ġrescue": 4303,
      "Ġvideo": 4304,
      "ĠBehind": 4305,
      "Ġais": 4306,
      "ĠAbra": 4307,
      "Ġtooth": 4308,
      "ĠTaking": 4309,
      "lying": 4310,
      "Ġalco": 4311,
      "eling": 4312,
      "Ġplayed": 4313,
      "Ġdebates": 4314,
      "Ġhabits": 4315,
      "ems": 4316,
      "Ġskew": 4317,
      "Ġalcohol": 4318,
      "\"-": 4319,
      "cas": 4320,
      "Ġwand": 4321,
      "icted": 4322,
      "Ġbewild": 4323,
      "Ġsta": 4324,
      "ĠPizza": 4325,
      "Ġchalk": 4326,
      "ĠLi": 4327,
      "cloth": 4328,
      "Ġcraving": 4329,
      "Ġstrapped": 4330,
      "Ġrequire": 4331,
      "Ġstranded": 4332,
      "Ġorchestra": 4333,
      "fs": 4334,
      "Ġslam": 4335,
      "Ġgraze": 4336,
      "ĠWhales": 4337,
      "Ġconfusion": 4338,
      "Ġsuspended": 4339,
      "Ġtickets": 4340,
      "Ġpatron": 4341,
      "Ġemer": 4342,
      "Ġdry": 4343,
      "Ġwaits": 4344,
      "thday": 4345,
      "world": 4346,
      "Ġtutu": 4347,
      "Ġcrossing": 4348,
      "ĠOrder": 4349,
      "Ġmillions": 4350,
      "ĠSnowmen": 4351,
      "arre": 4352,
      "ĠPenguin": 4353,
      "Ġskates": 4354,
      "Ġhighway": 4355,
      "Ġsandcast": 4356,
      "Ġscientif": 4357,
      "ĠMaybe": 4358,
      "Ġlemonade": 4359,
      "bl": 4360,
      "jack": 4361,
      "oom": 4362,
      "ĠSa": 4363,
      "ĠPr": 4364,
      "izarre": 4365,
      "Ġoffering": 4366,
      "anging": 4367,
      "Ġconfetti": 4368,
      "Ġpresence": 4369,
      "Ġmultiple": 4370,
      "Ġfigure": 4371,
      "Ġaw": 4372,
      "Ġhoses": 4373,
      "Ġinves": 4374,
      "Ġluck": 4375,
      "ĠIts": 4376,
      "Ġspend": 4377,
      "Ġtablecloth": 4378,
      "Ġstruc": 4379,
      "Ġconsum": 4380,
      "playing": 4381,
      "Ġteacher": 4382,
      "Ġbackpacks": 4383,
      "Ġabduct": 4384,
      "Ġmotor": 4385,
      "Ġscientific": 4386,
      "Ġbould": 4387,
      "Ġbizarre": 4388,
      "Ġfut": 4389,
      "Ġdunk": 4390,
      "lex": 4391,
      "Ġrecl": 4392,
      "Ġbutler": 4393,
      "Ġwasher": 4394,
      "Ġsurfing": 4395,
      "Ġamaze": 4396,
      "issors": 4397,
      "dr": 4398,
      "Ġgonna": 4399,
      "olded": 4400,
      "ĠHam": 4401,
      "asters": 4402,
      "Ġworks": 4403,
      "Ġairport": 4404,
      "Ġadventure": 4405,
      "Ġbottom": 4406,
      "ĠConstruction": 4407,
      "Ġprincess": 4408,
      "mphony": 4409,
      "Ġdess": 4410,
      "Ġhaven": 4411,
      "ĠMen": 4412,
      "Ġdisc": 4413,
      "Ġsaying": 4414,
      "Ġrays": 4415,
      "lessly": 4416,
      "crete": 4417,
      "Ġinspecting": 4418,
      "ns": 4419,
      "reat": 4420,
      "Ġhood": 4421,
      "Ġfier": 4422,
      "Ġnerv": 4423,
      "Ġselling": 4424,
      "ummy": 4425,
      "ĠWhile": 4426,
      "ift": 4427,
      "brero": 4428,
      "Ġchecked": 4429,
      "Ġpetting": 4430,
      "Ġglobe": 4431,
      "Ġfixing": 4432,
      "Ġreferee": 4433,
      "back": 4434,
      "ient": 4435,
      "iant": 4436,
      "Ġwoods": 4437,
      "iture": 4438,
      "aters": 4439,
      "ĠAre": 4440,
      "ended": 4441,
      "uty": 4442,
      "urd": 4443,
      "Ġbovine": 4444,
      "Ġbrush": 4445,
      "Ġmeets": 4446,
      "Ġattacked": 4447,
      "Ġsport": 4448,
      "Ġcompetitive": 4449,
      "ĠAlright": 4450,
      "Ġticket": 4451,
      "Ġdemand": 4452,
      "Ġcomforta": 4453,
      "duce": 4454,
      "she": 4455,
      "woman": 4456,
      "Ġpup": 4457,
      "Ġcinder": 4458,
      "Ġdine": 4459,
      "Ġgeck": 4460,
      "Ġbeg": 4461,
      "ration": 4462,
      "Ġleap": 4463,
      "Ġrowing": 4464,
      "urniture": 4465,
      "Ġcere": 4466,
      "Ġincluding": 4467,
      "Ġcurrent": 4468,
      "Ġgecko": 4469,
      "Ġtired": 4470,
      "Ġanach": 4471,
      "rous": 4472,
      "ĠAnge": 4473,
      "Ġpriest": 4474,
      "Ġunderground": 4475,
      "Ġcemet": 4476,
      "Ġsombrero": 4477,
      "Ġattention": 4478,
      "Ġanachron": 4479,
      "Ġcemetery": 4480,
      "Ġwizard": 4481,
      "Ġfurniture": 4482,
      "Ġdro": 4483,
      "Ġdev": 4484,
      "Ġmap": 4485,
      "Ġbirthday": 4486,
      "âĢĿ": 4487,
      "Ġdrama": 4488,
      "appy": 4489,
      "Ġcommunicate": 4490,
      "Ġpaintbr": 4491,
      "gravity": 4492,
      "Ġamazement": 4493,
      "tr": 4494,
      "entical": 4495,
      "arently": 4496,
      "Ġtale": 4497,
      "Ġconcrete": 4498,
      "Ġraking": 4499,
      "Ġclimbs": 4500,
      "Ġreality": 4501,
      "skating": 4502,
      "Ġmobster": 4503,
      "Ġwarming": 4504,
      "Ġdestroyed": 4505,
      "Ġidentical": 4506,
      "Ġwerewolf": 4507,
      "Ġbewildered": 4508,
      "tit": 4509,
      "itch": 4510,
      "atom": 4511,
      "acle": 4512,
      "Ġkingdom": 4513,
      "Ġcras": 4514,
      "Ġflipper": 4515,
      "Ġleave": 4516,
      "Ġunderstanding": 4517,
      "ĠAngels": 4518,
      "gage": 4519,
      "ral": 4520,
      "Ġdip": 4521,
      "Ġuns": 4522,
      "ĠCla": 4523,
      "Ġrode": 4524,
      "ventional": 4525,
      "Ġtowel": 4526,
      "Ġcavepeople": 4527,
      "Ġbehav": 4528,
      "Ġcommute": 4529,
      "Ġsmiling": 4530,
      "Ġzoo": 4531,
      "Ġordering": 4532,
      "Ġshootout": 4533,
      "Ġinjured": 4534,
      "Ġfeline": 4535,
      "fighting": 4536,
      "mit": 4537,
      "nam": 4538,
      "Ġwins": 4539,
      "Ġbeached": 4540,
      "Ġclos": 4541,
      "Ġclones": 4542,
      "Ġhumor": 4543,
      "Ġslanted": 4544,
      "tirement": 4545,
      "Ġrealtor": 4546,
      "Ġgreeting": 4547,
      "Ġsnails": 4548,
      "Ġsmartphones": 4549,
      "Ġpictures": 4550,
      "ĠOlympics": 4551,
      "Ġabsurd": 4552,
      "ĠAmish": 4553,
      "Ġradiator": 4554,
      "Ġjetpack": 4555,
      "Ġlanguage": 4556,
      "Ġsoldier": 4557,
      "Ġblindf": 4558,
      "ev": 4559,
      "Ġ5": 4560,
      "ret": 4561,
      "Ġhus": 4562,
      "icking": 4563,
      "Ġvi": 4564,
      "Ġserves": 4565,
      "atures": 4566,
      "Ġhappen": 4567,
      "Ġpresenting": 4568,
      "Ġobli": 4569,
      "ĠFran": 4570,
      "Ġlimbs": 4571,
      "looking": 4572,
      "Ġsleep": 4573,
      "arch": 4574,
      "Ġanatom": 4575,
      "Ġweek": 4576,
      "Ġatop": 4577,
      "Ġunde": 4578,
      "ĠSw": 4579,
      "Ġskins": 4580,
      "Ġsugg": 4581,
      "agull": 4582,
      "ude": 4583,
      "Ġpaw": 4584,
      "Ġescape": 4585,
      "Ġimprac": 4586,
      "Ġphysically": 4587,
      "Ġtubas": 4588,
      "Ġsolid": 4589,
      "araoke": 4590,
      "Ġpuzzled": 4591,
      "Ġhusband": 4592,
      "Ġoblivious": 4593,
      "Ġimpractical": 4594,
      "ms": 4595,
      "Ġpina": 4596,
      "Ġdanc": 4597,
      "Ġcausing": 4598,
      "Ġkaraoke": 4599,
      "lamingo": 4600,
      "Ġstring": 4601,
      "Ġlisten": 4602,
      "Ġhopping": 4603,
      "Ġexperiment": 4604,
      "colored": 4605,
      "Ġmischiev": 4606,
      "ĠAbraca": 4607,
      "Ġblindfolded": 4608,
      "ED": 4609,
      "lad": 4610,
      "umen": 4611,
      "Ġfruit": 4612,
      "ĠHon": 4613,
      "ressed": 4614,
      "Ġpossible": 4615,
      "Ġago": 4616,
      "Ġkeeping": 4617,
      "kenstein": 4618,
      "Ġsurface": 4619,
      "Ġsurfboard": 4620,
      "Ġlibrarian": 4621,
      "Ġmonocles": 4622,
      "ĠFrankenstein": 4623,
      "--": 4624,
      "Ġlu": 4625,
      "etings": 4626,
      "Ġcamer": 4627,
      "Ġreason": 4628,
      "Ġshall": 4629,
      "Ġpartake": 4630,
      "Ġrolling": 4631,
      "Ġacumen": 4632,
      "artin": 4633,
      "ount": 4634,
      "Ġshell": 4635,
      "ky": 4636,
      "ric": 4637,
      "atue": 4638,
      "Ġpock": 4639,
      "Ġarch": 4640,
      "aked": 4641,
      "Ġappeti": 4642,
      "Ġsuitable": 4643,
      "Ġtreats": 4644,
      "Ġcoffins": 4645,
      "ĠBBQing": 4646,
      "Ġinvolve": 4647,
      "Ġflamboyant": 4648,
      "fun": 4649,
      "orable": 4650,
      "omp": 4651,
      "idge": 4652,
      "ĠSir": 4653,
      "Ġmeat": 4654,
      "Ġswing": 4655,
      "Ġgrad": 4656,
      "Ġneeded": 4657,
      "Ġfeeding": 4658,
      "Ġbarista": 4659,
      "ĠBees": 4660,
      "ĠâĢĺ": 4661,
      "Ġcigar": 4662,
      "Ġexecuting": 4663,
      "Ġaisle": 4664,
      "hy": 4665,
      "haw": 4666,
      "iti": 4667,
      "Ġcos": 4668,
      "Ġinstruction": 4669,
      "Ġrow": 4670,
      "atell": 4671,
      "Ġcandy": 4672,
      "Ġperple": 4673,
      "ĠJo": 4674,
      "Ġanywhere": 4675,
      "Ġtreat": 4676,
      "Ġorganize": 4677,
      "Ġmovements": 4678,
      "Ġtemper": 4679,
      "Ġinstructor": 4680,
      "Ġinsects": 4681,
      ".'": 4682,
      "uing": 4683,
      "Ġsatell": 4684,
      "Ġcone": 4685,
      "arks": 4686,
      "ilt": 4687,
      "ĠGorill": 4688,
      "Ġdefies": 4689,
      "Ġquiet": 4690,
      "Ġscream": 4691,
      "Ġcooler": 4692,
      "Ġmilkshakes": 4693,
      "dles": 4694,
      "ries": 4695,
      "Ġcame": 4696,
      "Ġmeals": 4697,
      "Ġcarts": 4698,
      "Ġtrack": 4699,
      "ĠGu": 4700,
      "Ġperformances": 4701,
      "Ġloca": 4702,
      "fighter": 4703,
      "Ġsettings": 4704,
      "Ġequipped": 4705,
      "Ġvisiting": 4706,
      "Ġcapabilities": 4707,
      "Ġfavorite": 4708,
      "Ġskewers": 4709,
      "eat": 4710,
      "inated": 4711,
      "Ġcent": 4712,
      "ĠTonight": 4713,
      "Ġtas": 4714,
      "Ġupside": 4715,
      "Ġsurfer": 4716,
      "Ġfirefighter": 4717,
      "Ġevol": 4718,
      "Ġstroll": 4719,
      "yond": 4720,
      "letic": 4721,
      "Ġtoys": 4722,
      "Ġcoaster": 4723,
      "Ġcompre": 4724,
      "Ġbrings": 4725,
      "Ġevening": 4726,
      "Ġzombies": 4727,
      "Ġcalls": 4728,
      "Ġorganized": 4729,
      "erc": 4730,
      "Ġlate": 4731,
      "Ġstacked": 4732,
      "Ġcandle": 4733,
      "Ġgraph": 4734,
      "Ġbowties": 4735,
      "Ġmaybe": 4736,
      "Ġoffices": 4737,
      "almon": 4738,
      "Ġgnome": 4739,
      "Ġmelt": 4740,
      "Ġbrain": 4741,
      "Ġidea": 4742,
      "Ġwhistle": 4743,
      "Ġurban": 4744,
      "atching": 4745,
      "Ġbeyond": 4746,
      "Ġforget": 4747,
      "Ġinters": 4748,
      "Ġnewest": 4749,
      "Ġamong": 4750,
      "ĠSomeone": 4751,
      "Ġliquid": 4752,
      "Ġinstructions": 4753,
      "erk": 4754,
      "ĠTED": 4755,
      "Ġease": 4756,
      "olar": 4757,
      "ulars": 4758,
      "Ġsoaking": 4759,
      "Ġnotic": 4760,
      "Ġclear": 4761,
      "Ġteacups": 4762,
      "Ġcompany": 4763,
      "Ġtouch": 4764,
      "Ġmagnifying": 4765,
      "Ġ4": 4766,
      "Ġtangled": 4767,
      "Ġpou": 4768,
      "aning": 4769,
      "Ġthick": 4770,
      "Ġsharing": 4771,
      "Ġfluff": 4772,
      "Ġsaving": 4773,
      "Ġimag": 4774,
      "ocol": 4775,
      "abra": 4776,
      "Ġregister": 4777,
      "Ġreceiving": 4778,
      "Ġbehavior": 4779,
      "for": 4780,
      "med": 4781,
      "Ġhig": 4782,
      "Ġoutdo": 4783,
      "aging": 4784,
      "Ġclimate": 4785,
      "Ġstores": 4786,
      "Ġsurprise": 4787,
      "Ġreserv": 4788,
      "ĠChefs": 4789,
      "Ġordinary": 4790,
      "ĠClaus": 4791,
      "Ġperplexed": 4792,
      "Ġpath": 4793,
      "Ġlic": 4794,
      "Ġhay": 4795,
      "oop": 4796,
      "Ġparade": 4797,
      "Ġgrown": 4798,
      "Ġsaw": 4799,
      "ĠSometimes": 4800,
      "Ġentirely": 4801,
      "Ġposing": 4802,
      "ĠEverything": 4803,
      "Ġlibraries": 4804,
      "Ġincredible": 4805,
      "Ġdunking": 4806,
      "Ġparrot": 4807,
      "ĠSafety": 4808,
      "Ġarchit": 4809,
      "'.": 4810,
      "Ġsad": 4811,
      "Ġbul": 4812,
      "Ġdu": 4813,
      "iger": 4814,
      "umber": 4815,
      "Ġclucking": 4816,
      "Ġscissors": 4817,
      "Ġprov": 4818,
      "this": 4819,
      "Ġspeaks": 4820,
      "Ġfinding": 4821,
      "Ġboxes": 4822,
      "Ġicebergs": 4823,
      "ĠMooo": 4824,
      "Ġbarbecu": 4825,
      "Ġaffairs": 4826,
      "Ġpilot": 4827,
      "Ġpractice": 4828,
      "Ġsatellite": 4829,
      "EO": 4830,
      "dry": 4831,
      "Ġwing": 4832,
      "Ġwide": 4833,
      "Ġiss": 4834,
      "Ġlines": 4835,
      "Ġnovel": 4836,
      "Ġwel": 4837,
      "Ġlions": 4838,
      "Ġhero": 4839,
      "ĠBr": 4840,
      "....": 4841,
      "Ġserene": 4842,
      "Ġattrac": 4843,
      "Ġdepicted": 4844,
      "Ġnavigate": 4845,
      "Ġgavel": 4846,
      "Ġmultitasking": 4847,
      "Ġmischievous": 4848,
      "ĠGorillas": 4849,
      "car": 4850,
      "Ġmartin": 4851,
      "lection": 4852,
      "atula": 4853,
      "ooking": 4854,
      "Ġrepor": 4855,
      "Ġsec": 4856,
      "ĠMon": 4857,
      "aped": 4858,
      "Ġventure": 4859,
      "Ġlaun": 4860,
      "Ġsymphony": 4861,
      "Ġflamingle": 4862,
      "Ġhoop": 4863,
      "Ġprepare": 4864,
      "ĠâĢĵ": 4865,
      "Ġstarting": 4866,
      "Ġmelting": 4867,
      "hend": 4868,
      "Ġmother": 4869,
      "Ġseagull": 4870,
      "ĠWor": 4871,
      "Ġkne": 4872,
      "ilos": 4873,
      "tab": 4874,
      "ucc": 4875,
      "Ġgoss": 4876,
      "Ġtaller": 4877,
      "Ġcareer": 4878,
      "Ġexploring": 4879,
      "Ġathletic": 4880,
      "Ġallowed": 4881,
      "bly": 4882,
      "pon": 4883,
      "pite": 4884,
      "row": 4885,
      "Ġdairy": 4886,
      "key": 4887,
      "Ġshades": 4888,
      "pper": 4889,
      "ĠPla": 4890,
      "Ġfries": 4891,
      "Ġdiet": 4892,
      "Ġairpl": 4893,
      "view": 4894,
      "Ġsticking": 4895,
      "Ġsmartphone": 4896,
      "Ġbaggage": 4897,
      "Ġavoid": 4898,
      "Ġflavor": 4899,
      "roducing": 4900,
      "Ġresem": 4901,
      "Ġbinoc": 4902,
      "Ġcomprehend": 4903,
      "Ġtes": 4904,
      "Ġpec": 4905,
      "Ġfair": 4906,
      "Ġdou": 4907,
      "Ġdom": 4908,
      "ĠAc": 4909,
      "Ġsever": 4910,
      "Ġheight": 4911,
      "ĠOk": 4912,
      "Ġappe": 4913,
      "Ġproduce": 4914,
      "Ġcreating": 4915,
      "Ġdivers": 4916,
      "Ġpean": 4917,
      "Ġpirou": 4918,
      "Ġvehicles": 4919,
      "Ġintelligence": 4920,
      "Ġbinoculars": 4921,
      "Ġseveral": 4922,
      "vy": 4923,
      "Ġig": 4924,
      "iner": 4925,
      "Ġpapers": 4926,
      "Ġmood": 4927,
      "owning": 4928,
      "Ġswall": 4929,
      "ĠLook": 4930,
      "Ġsmaller": 4931,
      "ĠNutty": 4932,
      "Ġgossip": 4933,
      "fla": 4934,
      "Ġanth": 4935,
      "entures": 4936,
      "Ġcover": 4937,
      "Ġrestra": 4938,
      "Ġestab": 4939,
      "Ġcaptiv": 4940,
      "shaped": 4941,
      "Ġchessboard": 4942,
      "Ġchoices": 4943,
      "place": 4944,
      "ribe": 4945,
      "Ġartistic": 4946,
      "Ġkeyboard": 4947,
      "Ġquarterly": 4948,
      "Ġigloo": 4949,
      "Ġestablish": 4950,
      "house": 4951,
      "Ġpacked": 4952,
      "Ġfork": 4953,
      "life": 4954,
      "ightly": 4955,
      "Ġvers": 4956,
      "boat": 4957,
      "Ġenthusias": 4958,
      "Ġwish": 4959,
      "Ġdil": 4960,
      "Ġrely": 4961,
      "Ġspra": 4962,
      "asing": 4963,
      "Ġoffers": 4964,
      "Ġraising": 4965,
      "Ġpotato": 4966,
      "coming": 4967,
      "Ġdirectly": 4968,
      "Ġintersection": 4969,
      "Ġpecking": 4970,
      "Ġdilig": 4971,
      "dabra": 4972,
      "illy": 4973,
      "vol": 4974,
      "Ġir": 4975,
      "Ġbite": 4976,
      "lease": 4977,
      "ester": 4978,
      "Ġnet": 4979,
      "irling": 4980,
      "Ġyoung": 4981,
      "Ġlift": 4982,
      "ĠWolves": 4983,
      "Ġracing": 4984,
      "ipt": 4985,
      "Ġcrumbs": 4986,
      "Ġengine": 4987,
      "Ġbaskets": 4988,
      "Ġpanic": 4989,
      "bras": 4990,
      "ĠCheck": 4991,
      "ycling": 4992,
      "Ġchallenging": 4993,
      "Ġlifting": 4994,
      "Ġfuture": 4995,
      "Ġdessert": 4996,
      "oot": 4997,
      "press": 4998,
      "Ġze": 4999,
      "Ġfilling": 5000,
      "road": 5001,
      "Ġforg": 5002,
      "ooded": 5003,
      "Ġsoaring": 5004,
      "Ġyourself": 5005,
      "Ġarmed": 5006,
      "Ġdirecting": 5007,
      "Ġsmoke": 5008,
      "Ġspectacles": 5009,
      "Ġmembers": 5010,
      "uep": 5011,
      "Ġsour": 5012,
      "Ġcrossed": 5013,
      "Ġlas": 5014,
      "Ġbelly": 5015,
      "Ġitems": 5016,
      "iled": 5017,
      "phic": 5018,
      "Ġlost": 5019,
      "Ġmonster": 5020,
      "Ġtourists": 5021,
      "Ġcapability": 5022,
      "Ġrodeo": 5023,
      "ctions": 5024,
      "flies": 5025,
      "rely": 5026,
      "Ġble": 5027,
      "ĠTeddy": 5028,
      "Ġnap": 5029,
      "Ġbeats": 5030,
      "ĠMr": 5031,
      "ĠDid": 5032,
      "Ġbluep": 5033,
      "Ġscro": 5034,
      "Ġtrash": 5035,
      "Ġbreath": 5036,
      "Ġscaveng": 5037,
      "Ġtrends": 5038,
      "Ġthinking": 5039,
      "ĠKnights": 5040,
      "Ġargument": 5041,
      "function": 5042,
      "mas": 5043,
      "Ġsorry": 5044,
      "Ġsalmon": 5045,
      "Ġward": 5046,
      "arn": 5047,
      "Ġank": 5048,
      "ĠAcorn": 5049,
      "ĠSouth": 5050,
      "ĠCEO": 5051,
      "ĠFl": 5052,
      "Ġbuilt": 5053,
      "Ġscen": 5054,
      "Ġphilos": 5055,
      "Ġcreep": 5056,
      "Ġcele": 5057,
      "Ġsharp": 5058,
      "ĠZombies": 5059,
      "Ġfootball": 5060,
      "Ġcosmic": 5061,
      "pucc": 5062,
      "Ġsor": 5063,
      "Ġwilling": 5064,
      "Ġspatula": 5065,
      "Ġdisgu": 5066,
      "bove": 5067,
      "istor": 5068,
      "Ġimit": 5069,
      "Ġballroom": 5070,
      "Ġsyste": 5071,
      "Ġsteaks": 5072,
      "Ġfinish": 5073,
      "Ġaccessor": 5074,
      "Ġgardening": 5075,
      "Ġaprons": 5076,
      "Ġexhib": 5077,
      "Ġindustry": 5078,
      "ced": 5079,
      "zes": 5080,
      "Ġahead": 5081,
      "inos": 5082,
      "Ġwield": 5083,
      "Ġinst": 5084,
      "ĠAf": 5085,
      "usiness": 5086,
      "Ġitself": 5087,
      "Ġuses": 5088,
      "Ġrope": 5089,
      "ĠEng": 5090,
      "Ġbattle": 5091,
      "Ġjackham": 5092,
      "Ġdepart": 5093,
      "Ġdribbling": 5094,
      "Ġmoment": 5095,
      "Ġaston": 5096,
      "Ġhiding": 5097,
      "Ġmix": 5098,
      "Ġuncon": 5099,
      "cell": 5100,
      "ceed": 5101,
      "ĠHum": 5102,
      "ishment": 5103,
      "Ġdisaster": 5104,
      "ĠGard": 5105,
      "Ġrecomm": 5106,
      "Ġscarf": 5107,
      "Ġcurrency": 5108,
      "Ġpiles": 5109,
      "Ġcollecting": 5110,
      "ĠSynchronized": 5111,
      "Ġbackseat": 5112,
      "Ġsong": 5113,
      "eral": 5114,
      "ĠAbove": 5115,
      "Ġlugg": 5116,
      "Ġshort": 5117,
      "umb": 5118,
      "ĠYee": 5119,
      "Ġcappucc": 5120,
      "Ġkings": 5121,
      "Ġadult": 5122,
      "Ġbeaver": 5123,
      "uffle": 5124,
      "Ġstationary": 5125,
      "ĠSeeing": 5126,
      "Ġingredient": 5127,
      "Ġprotective": 5128,
      "ĠAlso": 5129,
      "Ġcharts": 5130,
      "Ġproject": 5131,
      "Ġwelcome": 5132,
      "aves": 5133,
      "histor": 5134,
      "Ġver": 5135,
      "iculous": 5136,
      "Ġplat": 5137,
      "lings": 5138,
      "Ġstruggle": 5139,
      "Ġkitchens": 5140,
      "Ġinteresting": 5141,
      "Ġdeliver": 5142,
      "Ġbikes": 5143,
      "Ġcheesy": 5144,
      "Ġcommunica": 5145,
      "pir": 5146,
      "Ġstuff": 5147,
      "Ġcalling": 5148,
      "urs": 5149,
      "Ġmanners": 5150,
      "umble": 5151,
      "Ġarr": 5152,
      "cuse": 5153,
      "Ġintern": 5154,
      "Ġremote": 5155,
      "Ġcashier": 5156,
      "ĠQuack": 5157,
      "Ġtemperatures": 5158,
      "ocolate": 5159,
      "Ġdiligently": 5160,
      "Ġforgot": 5161,
      "Ġankle": 5162,
      "historic": 5163,
      "fes": 5164,
      "ised": 5165,
      "itter": 5166,
      "Ġleaning": 5167,
      "Ġrocks": 5168,
      "Ġdrivers": 5169,
      "Ġvirt": 5170,
      "Ġblow": 5171,
      "Ġmagically": 5172,
      "Ġbusinessman": 5173,
      "Ġadults": 5174,
      "Ġridiculous": 5175,
      "Ġcurious": 5176,
      "Ġnervous": 5177,
      "Ġsim": 5178,
      "Ġfinger": 5179,
      "Ġsection": 5180,
      "Ġshorta": 5181,
      "Ġoven": 5182,
      "Ġdryer": 5183,
      "Ġcovering": 5184,
      "Ġbuy": 5185,
      "Ġsix": 5186,
      "ĠChina": 5187,
      "Ġsteal": 5188,
      "amele": 5189,
      "Ġsalad": 5190,
      "Ġsurprisingly": 5191,
      "Ġdocuments": 5192,
      "Ġremains": 5193,
      "arrots": 5194,
      "Ġrecliner": 5195,
      "Ġhigher": 5196,
      "Ġdummy": 5197,
      "used": 5198,
      "ĠSever": 5199,
      "Ġupgr": 5200,
      "ĠBusiness": 5201,
      "Ġvast": 5202,
      "Ġsurger": 5203,
      "Ġprim": 5204,
      "bee": 5205,
      "izzas": 5206,
      "Ġwinking": 5207,
      "Ġdrawing": 5208,
      "Ġpedestrians": 5209,
      "Ġreceipt": 5210,
      "Ġrobot": 5211,
      "Ġmaneu": 5212,
      "evil": 5213,
      "ĠSeveral": 5214,
      "hab": 5215,
      "Ġtwe": 5216,
      "Ġbaked": 5217,
      "Ġcasting": 5218,
      "Ġweap": 5219,
      "Ġretail": 5220,
      "chan": 5221,
      "Ġmod": 5222,
      "Ġactivity": 5223,
      "ĠGot": 5224,
      "Ġapple": 5225,
      "Ġlegend": 5226,
      "Ġapproaches": 5227,
      "Ġrelaxation": 5228,
      "Ġbeams": 5229,
      "Ġhonking": 5230,
      "Ġrescuing": 5231,
      "Ġbeef": 5232,
      "Ġexcited": 5233,
      "Ġlux": 5234,
      "Ġwardrobe": 5235,
      "ded": 5236,
      "more": 5237,
      "test": 5238,
      "Ġsquir": 5239,
      "isting": 5240,
      "Ġwest": 5241,
      "Ġport": 5242,
      "ushes": 5243,
      "Ġretirement": 5244,
      "Ġupon": 5245,
      "Ġpost": 5246,
      "aph": 5247,
      "Ġgotta": 5248,
      "Ġhappened": 5249,
      "Ġpaperwork": 5250,
      "Ġbatter": 5251,
      "Ġmission": 5252,
      "Ġmobile": 5253,
      "Ġeasier": 5254,
      "ĠSurf": 5255,
      "Ġluggage": 5256,
      "gie": 5257,
      "Ġign": 5258,
      "Ġpit": 5259,
      "Ġpine": 5260,
      "Ġputs": 5261,
      "Ġcub": 5262,
      "ords": 5263,
      "ĠAs": 5264,
      "acti": 5265,
      "andom": 5266,
      "ĠCacti": 5267,
      "ĠBanan": 5268,
      "anches": 5269,
      "ĠGiant": 5270,
      "Ġprope": 5271,
      "Ġindo": 5272,
      "Ġquestions": 5273,
      "Ġbearded": 5274,
      "ĠIntergalactic": 5275,
      "Ġstunts": 5276,
      "Ġconditions": 5277,
      "Ġvocal": 5278,
      "Ġapplauding": 5279,
      "Ġhotdog": 5280,
      "Ġgraduation": 5281,
      "Ġairplane": 5282,
      "Ġunconventional": 5283,
      "kn": 5284,
      "Ġboun": 5285,
      "Ġcro": 5286,
      "Ġlength": 5287,
      "ĠSte": 5288,
      "Ġtax": 5289,
      "Ġrandom": 5290,
      "Ġchocolate": 5291,
      "Ġfruits": 5292,
      "ĠMonkey": 5293,
      "Ġcompared": 5294,
      "Ġsteak": 5295,
      "Ġfamous": 5296,
      "Ġkeys": 5297,
      "priate": 5298,
      "Ġspreadshe": 5299,
      "ycles": 5300,
      "Ġorders": 5301,
      "Ġmask": 5302,
      "tie": 5303,
      "Ġbound": 5304,
      "uns": 5305,
      "raft": 5306,
      "Ġris": 5307,
      "essor": 5308,
      "table": 5309,
      "Ġtrail": 5310,
      "Ġwaiters": 5311,
      "Ġanymore": 5312,
      "Ġfashionable": 5313,
      "Ġindulging": 5314,
      "Ġstools": 5315,
      "Ġyelling": 5316,
      "Ġjelly": 5317,
      "hill": 5318,
      "po": 5319,
      "Ġess": 5320,
      "Ġson": 5321,
      "Ġpay": 5322,
      "ĠApp": 5323,
      "Ġreact": 5324,
      "Ġreport": 5325,
      "Ġdozen": 5326,
      "ĠPolar": 5327,
      "ĠOf": 5328,
      "Ġmale": 5329,
      "ĠBarb": 5330,
      "ĠBuild": 5331,
      "Ġshoulders": 5332,
      "Ġjoy": 5333,
      "Ġpresentations": 5334,
      "Ġspecies": 5335,
      "ĠNext": 5336,
      "Ġlaser": 5337,
      "eah": 5338,
      "tens": 5339,
      "Ġill": 5340,
      "Ġage": 5341,
      "Ġbudd": 5342,
      "Ġflex": 5343,
      "ĠAma": 5344,
      "Ġweather": 5345,
      "ĠWhere": 5346,
      "ĠCooking": 5347,
      "ĠFirst": 5348,
      "Ġprom": 5349,
      "Ġbranches": 5350,
      "ogn": 5351,
      "Ġfrog": 5352,
      "Ġapproaching": 5353,
      "ĠOnly": 5354,
      "ival": 5355,
      "Ġprobing": 5356,
      "Ġhyster": 5357,
      "Ġcellphone": 5358,
      "Ġstructure": 5359,
      "Ġcappuccino": 5360,
      "Ġdust": 5361,
      "Ġunicyc": 5362,
      "Ġexerc": 5363,
      "Ġfloats": 5364,
      "Ġgrills": 5365,
      "Ġdespite": 5366,
      "ogra": 5367,
      "ĠChill": 5368,
      "Ġlocal": 5369,
      "Ġfunny": 5370,
      "Ġpolitics": 5371,
      "Ġstretches": 5372,
      "Ġmonocle": 5373,
      "Ġsupplies": 5374,
      "Ġunderes": 5375,
      "cellent": 5376,
      "ĠGarden": 5377,
      "hift": 5378,
      "Ġer": 5379,
      "inity": 5380,
      "oud": 5381,
      "Ġpins": 5382,
      "anks": 5383,
      "Ġdie": 5384,
      "Ġrevers": 5385,
      "Ġlets": 5386,
      "Ġrac": 5387,
      "Ġchopping": 5388,
      "Ġcomb": 5389,
      "inema": 5390,
      "Ġpicnicking": 5391,
      "Ġminutes": 5392,
      "Ġfinest": 5393,
      "ĠGiraffe": 5394,
      "Ġapproach": 5395,
      "Ġbottle": 5396,
      "Ġhours": 5397,
      "Ġnavigating": 5398,
      "Ġgoldfish": 5399,
      "Ġspikes": 5400,
      "Ġappeared": 5401,
      "Ġhysterically": 5402,
      "SA": 5403,
      "zens": 5404,
      "Ġbill": 5405,
      "Ġinanimate": 5406,
      "Ġstad": 5407,
      "urity": 5408,
      "Ġlily": 5409,
      "Ġcong": 5410,
      "ĠMo": 5411,
      "Ġunusually": 5412,
      "Ġcollar": 5413,
      "ĠNuts": 5414,
      "Ġmakeup": 5415,
      "Ġrealize": 5416,
      "Ġcolder": 5417,
      "Ġregions": 5418,
      "Ġmakeshift": 5419,
      "Ġkicked": 5420,
      "Ġ20": 5421,
      "Ġfierce": 5422,
      "Ġpuppet": 5423,
      "Ġjackhammer": 5424,
      "Ġstadium": 5425,
      "We": 5426,
      "uca": 5427,
      "va": 5428,
      "zon": 5429,
      "anna": 5430,
      "Ġinform": 5431,
      "Ġgoods": 5432,
      "ĠAct": 5433,
      "quis": 5434,
      "Ġshare": 5435,
      "ĠCave": 5436,
      "Ġmaj": 5437,
      "Ġflooded": 5438,
      "Ġque": 5439,
      "Ġqual": 5440,
      "Ġhottest": 5441,
      "Ġtuba": 5442,
      "Ġtwice": 5443,
      "Ġtwirling": 5444,
      "Ġspeeding": 5445,
      "Ġsmiley": 5446,
      "Ġdestroying": 5447,
      "Ġsquaw": 5448,
      "Ġboulder": 5449,
      "Ġcamera": 5450,
      "Ġtasks": 5451,
      "gen": 5452,
      "ym": 5453,
      "Ġwigs": 5454,
      "Ġwires": 5455,
      "omor": 5456,
      "ĠPass": 5457,
      "Ġsurrounding": 5458,
      "Ġcasinos": 5459,
      "Ġstarted": 5460,
      "Ġmosquitoes": 5461,
      "Ġstrolling": 5462,
      "rints": 5463,
      "Ġdancers": 5464,
      "Ġphilosoph": 5465,
      "Ġbene": 5466,
      "anes": 5467,
      "Ġfighting": 5468,
      "usual": 5469,
      "ama": 5470,
      "Ġcompos": 5471,
      "Ġprehistoric": 5472,
      "berty": 5473,
      "Ġstrength": 5474,
      "ĠRome": 5475,
      "Ġtoward": 5476,
      "Ġagend": 5477,
      "ibility": 5478,
      "Ġpreferences": 5479,
      "Ġdeeply": 5480,
      "Ġmonst": 5481,
      "Ġmonsters": 5482,
      "Ġmedia": 5483,
      "Ġpointless": 5484,
      "ĠDeer": 5485,
      "Ġsilver": 5486,
      "Ġdomination": 5487,
      "Ġimitate": 5488,
      "cold": 5489,
      "Ġwire": 5490,
      "Ġpong": 5491,
      "Ġcycling": 5492,
      "Ġonce": 5493,
      "Ġthread": 5494,
      "ĠCr": 5495,
      "ĠHigh": 5496,
      "ĠMar": 5497,
      "Ġdishes": 5498,
      "pecca": 5499,
      "Ġcrack": 5500,
      "Ġrail": 5501,
      "ĠYeah": 5502,
      "Ġimpecca": 5503,
      "Ġbreaks": 5504,
      "Ġprofile": 5505,
      "Ġutterly": 5506,
      "Ġalligators": 5507,
      "Ġfeeling": 5508,
      "Ġenthusiasts": 5509,
      "Ġdreams": 5510,
      "Ġpropeller": 5511,
      "Ġmonstrous": 5512,
      "fli": 5513,
      "vag": 5514,
      "stool": 5515,
      "veled": 5516,
      "usion": 5517,
      "rored": 5518,
      "Ġrif": 5519,
      "Ġchasing": 5520,
      "Ġworth": 5521,
      "ĠFlamingo": 5522,
      "taking": 5523,
      "Ġcode": 5524,
      "ushi": 5525,
      "Ġorganizing": 5526,
      "Ġwonder": 5527,
      "Ġgestures": 5528,
      "Ġblueprints": 5529,
      "ĠCavemen": 5530,
      "eking": 5531,
      "ltry": 5532,
      "riger": 5533,
      "Ġaiming": 5534,
      "erally": 5535,
      "Ġtopp": 5536,
      "lada": 5537,
      "Ġlikes": 5538,
      "Ġfrowning": 5539,
      "Ġsudd": 5540,
      "Ġdrum": 5541,
      "ĠLizards": 5542,
      "Ġcompeting": 5543,
      "ĠGra": 5544,
      "Ġcrushed": 5545,
      "Ġdesks": 5546,
      "Ġmidair": 5547,
      "Ġspell": 5548,
      "Ġentangled": 5549,
      "Ġstray": 5550,
      "ĠClub": 5551,
      "ĠBea": 5552,
      "Ġpoliceman": 5553,
      "Ġrefriger": 5554,
      "Ġrocket": 5555,
      "Ġpleased": 5556,
      "mirrored": 5557,
      "Ġmannered": 5558,
      "Ġdelicately": 5559,
      "Ġpilots": 5560,
      "Ġinterrupted": 5561,
      "Ġmaintain": 5562,
      "Ġembrace": 5563,
      "Ġjuice": 5564,
      "Ġllamas": 5565,
      "Ġoutdoor": 5566,
      "Ġarchitect": 5567,
      "Ġexhibit": 5568,
      "den": 5569,
      "tial": 5570,
      "ĠIV": 5571,
      "Ġflower": 5572,
      "ĠExt": 5573,
      "eping": 5574,
      "Ġcri": 5575,
      "Ġcracked": 5576,
      "Ġfema": 5577,
      "Ġcrew": 5578,
      "ĠBeach": 5579,
      "Ġdirections": 5580,
      "Ġentertaining": 5581,
      "Ġstrike": 5582,
      "Ġjumps": 5583,
      "Ġtanning": 5584,
      "Ġlays": 5585,
      "Ġelectric": 5586,
      "ĠAbracadabra": 5587,
      "Ġbleeding": 5588,
      "cent": 5589,
      "ug": 5590,
      "onde": 5591,
      "tis": 5592,
      "Ġdig": 5593,
      "Ġnood": 5594,
      "andments": 5595,
      "Ġspac": 5596,
      "essions": 5597,
      "arding": 5598,
      "ĠBall": 5599,
      "stellar": 5600,
      "Ġcheating": 5601,
      "Ġblonde": 5602,
      "onkeying": 5603,
      "Ġscr": 5604,
      "Ġstrong": 5605,
      "Ġadorable": 5606,
      "Ġflash": 5607,
      "Ġexperi": 5608,
      "Ġsurfboards": 5609,
      "Ġappropriate": 5610,
      "Ġbottles": 5611,
      "Ġexperimenting": 5612,
      "ĠMeetings": 5613,
      "Ġmasks": 5614,
      "Ġhitchhiker": 5615,
      "Ġhamburgers": 5616,
      "Ġversion": 5617,
      "ĠAmazon": 5618,
      "Ġagenda": 5619,
      "nut": 5620,
      "sav": 5621,
      "Ġsessions": 5622,
      "Ġlow": 5623,
      "Ġrevol": 5624,
      "Ġspire": 5625,
      "ĠPre": 5626,
      "ĠPigs": 5627,
      "Ġdeg": 5628,
      "ĠMom": 5629,
      "Ġblue": 5630,
      "ĠYor": 5631,
      "Ġquick": 5632,
      "Ġhose": 5633,
      "Ġtowering": 5634,
      "ĠChimpanzees": 5635,
      "Ġmilking": 5636,
      "Ġmusicians": 5637,
      "Ġrecogn": 5638,
      "Ġbroken": 5639,
      "xygen": 5640,
      "Ġspinning": 5641,
      "Ġdecorated": 5642,
      "Ġdiscovered": 5643,
      "Ġanachronistic": 5644,
      "Ġrestrained": 5645,
      "nies": 5646,
      "Ġump": 5647,
      "reg": 5648,
      "reet": 5649,
      "Ġcinema": 5650,
      "arant": 5651,
      "Ġren": 5652,
      "aste": 5653,
      "ĠLo": 5654,
      "Ġcolada": 5655,
      "Ġgators": 5656,
      "gged": 5657,
      "Ġgrab": 5658,
      "Ġscor": 5659,
      "Ġtrained": 5660,
      "ĠInt": 5661,
      "Ġcavemen": 5662,
      "Ġspaceships": 5663,
      "Ġputt": 5664,
      "Ġdecide": 5665,
      "Ġconductor": 5666,
      "Ġapproached": 5667,
      "Ġhelping": 5668,
      "ropomor": 5669,
      "goers": 5670,
      "Ġfearful": 5671,
      "Ġfours": 5672,
      "Ġcannonballing": 5673,
      "Ġstockade": 5674,
      "Ġlearned": 5675,
      "Ġparachute": 5676,
      "Ġhornets": 5677,
      "Ġhoodie": 5678,
      "Ġsecurity": 5679,
      "Ġanthropomor": 5680,
      "Ġrifle": 5681,
      "Ġspacec": 5682,
      "Ġanthropomorphic": 5683,
      "bed": 5684,
      "ipping": 5685,
      "lery": 5686,
      "rew": 5687,
      "Ġciv": 5688,
      "Ġdense": 5689,
      "Ġyard": 5690,
      "Ġyeti": 5691,
      "Ġtales": 5692,
      "Ġexch": 5693,
      "Ġmazes": 5694,
      "Ġarctic": 5695,
      "Ġbarstool": 5696,
      "Ġcavewoman": 5697,
      "Ġamph": 5698,
      "Ġwinner": 5699,
      "Ġappreci": 5700,
      "Ġmilkshake": 5701,
      "Ġostrich": 5702,
      "Ġunderestimate": 5703,
      "Ġumpire": 5704,
      "Ġscorching": 5705,
      "mosp": 5706,
      "whe": 5707,
      "Ġaward": 5708,
      "Ġsushi": 5709,
      "Ġwading": 5710,
      "Ġbanged": 5711,
      "ĠSand": 5712,
      "Ġtap": 5713,
      "Ġparking": 5714,
      "Ġclerk": 5715,
      "Ġoxygen": 5716,
      "Ġsav": 5717,
      "ordinary": 5718,
      "ĠKings": 5719,
      "Ġinstrument": 5720,
      "Ġstraightjack": 5721,
      "Ġkangaroos": 5722,
      "Ġmissing": 5723,
      "Ġmailman": 5724,
      "Ġwaterskier": 5725,
      "Ġsteeple": 5726,
      "Ġwaterskiing": 5727,
      "Ġwielding": 5728,
      "Ġsurgery": 5729,
      "known": 5730,
      "Ġreversed": 5731,
      "Ġrailroad": 5732,
      "ĠIVs": 5733,
      "Ġstraightjackets": 5734,
      "ule": 5735,
      "Ġclasses": 5736,
      "orth": 5737,
      "Ġneither": 5738,
      "ĠHoney": 5739,
      "Ġmasters": 5740,
      "Ġskier": 5741,
      "ĠGentlemen": 5742,
      "Ġhanding": 5743,
      "Ġcarrots": 5744,
      "Ġcountry": 5745,
      "Ġtraining": 5746,
      "Ġprotest": 5747,
      "Ġprotection": 5748,
      "Ġdistant": 5749,
      "Ġelegantly": 5750,
      "Ġtournam": 5751,
      "Ġexplore": 5752,
      "Ġbrains": 5753,
      "ĠWatermel": 5754,
      "Ġextinguishing": 5755,
      "Ġmaterials": 5756,
      "Ġpropose": 5757,
      "Ġtrouble": 5758,
      "Ġcandlelit": 5759,
      "Ġshortage": 5760,
      "Ġfemale": 5761,
      "pout": 5762,
      "tling": 5763,
      "vas": 5764,
      "cade": 5765,
      "Ġhorns": 5766,
      "Ġdar": 5767,
      "esting": 5768,
      "Ġnam": 5769,
      "alth": 5770,
      "Ġfrill": 5771,
      "Ġarcher": 5772,
      "Ġscribe": 5773,
      "ific": 5774,
      "Ġnobody": 5775,
      "Ġtoasted": 5776,
      "Ġinvent": 5777,
      "Ġleaving": 5778,
      "Ġreflection": 5779,
      "Ġwaterspout": 5780,
      "Ġrollerb": 5781,
      "Ġmessy": 5782,
      "ĠSharks": 5783,
      "Ġoccurr": 5784,
      "ĠLiberty": 5785,
      "Ġspacecraft": 5786,
      "isbee": 5787,
      "Ġwis": 5788,
      "Ġinf": 5789,
      "alks": 5790,
      "Ġreside": 5791,
      "ĠWould": 5792,
      "cel": 5793,
      "ĠHi": 5794,
      "ĠMil": 5795,
      "ĠMost": 5796,
      "Ġplacing": 5797,
      "Ġways": 5798,
      "ship": 5799,
      "Ġclassic": 5800,
      "ĠStreet": 5801,
      "Ġtransform": 5802,
      "Ġaffinity": 5803,
      "Ġcutlery": 5804,
      "Ġartist": 5805,
      "Ġpursuits": 5806,
      "Ġfluffy": 5807,
      "mosphere": 5808,
      "Ġbou": 5809,
      "Ġpizzas": 5810,
      "Ġfive": 5811,
      "Ġgym": 5812,
      "ache": 5813,
      "vement": 5814,
      "Ġstorm": 5815,
      "urance": 5816,
      "ĠBab": 5817,
      "Ġoppon": 5818,
      "ĠUd": 5819,
      "Ġspacesuit": 5820,
      "Ġparticular": 5821,
      "ĠKing": 5822,
      "Ġoccup": 5823,
      "Ġemerg": 5824,
      "Ġwillingly": 5825,
      "dred": 5826,
      "kin": 5827,
      "over": 5828,
      "rit": 5829,
      "Ġaut": 5830,
      "Ġcrop": 5831,
      "Ġfather": 5832,
      "Ġarea": 5833,
      "Ġlun": 5834,
      "aline": 5835,
      "Ġcal": 5836,
      "owned": 5837,
      "ĠHold": 5838,
      "Ġchewing": 5839,
      "Ġcoasters": 5840,
      "ibes": 5841,
      "renaline": 5842,
      "Ġbags": 5843,
      "Ġpretending": 5844,
      "Ġscarves": 5845,
      "Ġexercise": 5846,
      "ĠWatermelons": 5847,
      "fy": 5848,
      "min": 5849,
      "oons": 5850,
      "py": 5851,
      "ĠTra": 5852,
      "ĠPlease": 5853,
      "epad": 5854,
      "Ġdesper": 5855,
      "Ġhovers": 5856,
      "Ġfuneral": 5857,
      "ĠTrying": 5858,
      "Ġgliding": 5859,
      "Ġbeverage": 5860,
      "ĠUsing": 5861,
      "Ġcutting": 5862,
      "Ġrarely": 5863,
      "garit": 5864,
      "Ġcenter": 5865,
      "Ġspraying": 5866,
      "Ġsystem": 5867,
      "ĠAfter": 5868,
      "Ġinternet": 5869,
      "ĠIntroducing": 5870,
      "Ġinhab": 5871,
      "Ġareas": 5872,
      "Ġonline": 5873,
      "Ġatmosphere": 5874,
      "aded": 5875,
      "Ġnotepad": 5876,
      "Ġtails": 5877,
      "Ġconqu": 5878,
      "atever": 5879,
      "ĠLove": 5880,
      "agne": 5881,
      "Ġtowels": 5882,
      "Ġadrenaline": 5883,
      "Ġflips": 5884,
      "Ġmountaintop": 5885,
      "atory": 5886,
      "Ġexperts": 5887,
      "Ġpasta": 5888,
      "Ġtechnological": 5889,
      "Ġchallenge": 5890,
      "Ġharmony": 5891,
      "Ġunicycling": 5892,
      "Ġrefrigerator": 5893,
      "Ġtough": 5894,
      "Ġpace": 5895,
      "itary": 5896,
      "Ġdim": 5897,
      "Ġduty": 5898,
      "Ġmats": 5899,
      "Ġgroom": 5900,
      "Ġgentle": 5901,
      "Ġmanage": 5902,
      "ille": 5903,
      "ilet": 5904,
      "olute": 5905,
      "ĠBuck": 5906,
      "Ġchecking": 5907,
      "ĠGreat": 5908,
      "Ġexpla": 5909,
      "Ġlistens": 5910,
      "Ġhundred": 5911,
      "Ġadventures": 5912,
      "Ġchampagne": 5913,
      "Ġaddressing": 5914,
      "Ġpassengers": 5915,
      "Ġnonchalantly": 5916,
      "field": 5917,
      "Ġtoy": 5918,
      "Ġbecoming": 5919,
      "eches": 5920,
      "Ġflu": 5921,
      "ysfunction": 5922,
      "Ġvill": 5923,
      "Ġgrowing": 5924,
      "Ġproceed": 5925,
      "Ġslightly": 5926,
      "Ġthrill": 5927,
      "Ġhoops": 5928,
      "Ġamazing": 5929,
      "ĠHonor": 5930,
      "Ġpeanuts": 5931,
      "Ġcivili": 5932,
      "Ġoccurrence": 5933,
      "ĠUdderly": 5934,
      "hold": 5935,
      "Ġbing": 5936,
      "Ġoften": 5937,
      "otton": 5938,
      "ĠWith": 5939,
      "Ġjury": 5940,
      "ĠComm": 5941,
      "Ġstandard": 5942,
      "Ġvibes": 5943,
      "Ġmention": 5944,
      "Ġspeeches": 5945,
      "Ġcarrot": 5946,
      "Ġjoining": 5947,
      "Ġsalon": 5948,
      "Ġbubbles": 5949,
      "Ġsaucers": 5950,
      "Ġterrified": 5951,
      "ĠOkay": 5952,
      "riend": 5953,
      "Ġtit": 5954,
      "Ġpor": 5955,
      "icac": 5956,
      "Ġunique": 5957,
      "Ġshake": 5958,
      "ĠSun": 5959,
      "Ġmelo": 5960,
      "Ġmyster": 5961,
      "Ġblood": 5962,
      "Ġtray": 5963,
      "ĠEarthly": 5964,
      "brant": 5965,
      "Ġflaw": 5966,
      "actor": 5967,
      "Ġsocks": 5968,
      "Ġslowly": 5969,
      "Ġlevitation": 5970,
      "Ġstretched": 5971,
      "Ġhydr": 5972,
      "impanzee": 5973,
      "Ġearthly": 5974,
      "Ġrooftop": 5975,
      "Ġfasc": 5976,
      "Ġvibrant": 5977,
      "ĠPlaying": 5978,
      "ĠCheckmate": 5979,
      "ĠHumans": 5980,
      "Ġimpeccable": 5981,
      "Ġinhabit": 5982,
      "Who": 5983,
      "hop": 5984,
      "lom": 5985,
      "oration": 5986,
      "law": 5987,
      "ĠSc": 5988,
      "Ġskip": 5989,
      "ĠFren": 5990,
      "Ġboys": 5991,
      "ĠThanks": 5992,
      "Ġbuzz": 5993,
      "pect": 5994,
      "Ġstruggling": 5995,
      "ths": 5996,
      "ddler": 5997,
      "Ġcrash": 5998,
      "Ġconferences": 5999,
      "Ġamuse": 6000,
      "Ġcarefully": 6001,
      "ĠFrom": 6002,
      "Ġdeserts": 6003,
      "ĠPlus": 6004,
      "Ġinvest": 6005,
      "Ġpaintbrush": 6006,
      "Ġsongs": 6007,
      "ĠBeavers": 6008,
      "Ġproceedings": 6009,
      "ative": 6010,
      "Ġterm": 6011,
      "isy": 6012,
      "Ġcities": 6013,
      "Ġanno": 6014,
      "quet": 6015,
      "lium": 6016,
      "Ġrhy": 6017,
      "Ġchore": 6018,
      "Ġjou": 6019,
      "osing": 6020,
      "Ġfridge": 6021,
      "Ġmechan": 6022,
      "Ġcris": 6023,
      "Ġgrave": 6024,
      "Ġbright": 6025,
      "Ġheadlines": 6026,
      "Ġattack": 6027,
      "Ġpresiding": 6028,
      "Ġscaling": 6029,
      "Ġprofessor": 6030,
      "Ġkeeps": 6031,
      "Ġstudying": 6032,
      "Ġadvice": 6033,
      "boxes": 6034,
      "Ġcloser": 6035,
      "Ġsource": 6036,
      "Ġpun": 6037,
      "Ġmer": 6038,
      "iction": 6039,
      "ustice": 6040,
      "Ġchimpanzee": 6041,
      "Ġteaching": 6042,
      "balls": 6043,
      "Ġguests": 6044,
      "Ġjogging": 6045,
      "Ġruns": 6046,
      "Ġscat": 6047,
      "Ġlattes": 6048,
      "Ġmete": 6049,
      "Ġnumbers": 6050,
      "Ġeasy": 6051,
      "Ġlassos": 6052,
      "ĠApparently": 6053,
      "Ġamusement": 6054,
      "dra": 6055,
      "Ġtheaters": 6056,
      "Ġhide": 6057,
      "Ġhelium": 6058,
      "ĠPir": 6059,
      "ĠPed": 6060,
      "Ġknack": 6061,
      "Ġchilly": 6062,
      "Ġscore": 6063,
      "Ġguarant": 6064,
      "Ġimpa": 6065,
      "Ġeaten": 6066,
      "Ġchase": 6067,
      "Ġcomedic": 6068,
      "Ġeffective": 6069,
      "Ġattempt": 6070,
      "Ġcontrols": 6071,
      "Ġgreener": 6072,
      "Ġrobes": 6073,
      "Ġlasso": 6074,
      "Ġpoultry": 6075,
      "Ġissues": 6076,
      "Ġmartinis": 6077,
      "Ġscavenging": 6078,
      "Ġaccessorize": 6079,
      "ĠFrench": 6080,
      "Ġsme": 6081,
      "Ġfan": 6082,
      "Ġmall": 6083,
      "Ġanal": 6084,
      "iday": 6085,
      "Ġret": 6086,
      "Ġspr": 6087,
      "Ġri": 6088,
      "Ġknights": 6089,
      "elf": 6090,
      "ĠElderly": 6091,
      "Ġgiven": 6092,
      "ĠGood": 6093,
      "Ġsales": 6094,
      "Ġshowcas": 6095,
      "Ġsunbathe": 6096,
      "Ġinterstellar": 6097,
      "Ġhike": 6098,
      "Ġtalks": 6099,
      "Ġsticky": 6100,
      "Ġbegin": 6101,
      "Ġbeneath": 6102,
      "nal": 6103,
      "otic": 6104,
      "tory": 6105,
      "Ġsenti": 6106,
      "Ġfond": 6107,
      "Ġlam": 6108,
      "Ġreaches": 6109,
      "oping": 6110,
      "related": 6111,
      "ĠGn": 6112,
      "Ġmargarit": 6113,
      "Ġzoom": 6114,
      "Ġlevels": 6115,
      "Ġinvolved": 6116,
      "Ġsnorkeling": 6117,
      "ĠGuess": 6118,
      "ĠBuckle": 6119,
      "Ġshowcasing": 6120,
      "pt": 6121,
      "wn": 6122,
      "Ġsimp": 6123,
      "erved": 6124,
      "Ġpred": 6125,
      "Ġdysfunction": 6126,
      "lets": 6127,
      "Ġhare": 6128,
      "utting": 6129,
      "ĠSure": 6130,
      "Ġmode": 6131,
      "Ġtrial": 6132,
      "Ġtried": 6133,
      "Ġgoal": 6134,
      "Ġfeed": 6135,
      "shirt": 6136,
      "Ġturning": 6137,
      "ĠKe": 6138,
      "ĠStatue": 6139,
      "Ġlesson": 6140,
      "ĠVegetables": 6141,
      "Ġdiplom": 6142,
      "Ġprovide": 6143,
      "Ġplatform": 6144,
      "Ġphilosophical": 6145,
      "Ġsuddenly": 6146,
      "cul": 6147,
      "Ġpets": 6148,
      "icnic": 6149,
      "Ġbell": 6150,
      "ques": 6151,
      "lien": 6152,
      "ĠLlam": 6153,
      "ressive": 6154,
      "itions": 6155,
      "Ġmilitary": 6156,
      "def": 6157,
      "Ġjudges": 6158,
      "Ġbulls": 6159,
      "Ġobserve": 6160,
      "ĠExcuse": 6161,
      "sticks": 6162,
      "style": 6163,
      "Ġcomfortably": 6164,
      "mo": 6165,
      "pipe": 6166,
      "eren": 6167,
      "Ġhook": 6168,
      "Ġming": 6169,
      "esty": 6170,
      "Ġreached": 6171,
      "urass": 6172,
      "ĠWalking": 6173,
      "Ġboots": 6174,
      "ĠLake": 6175,
      "itement": 6176,
      "ague": 6177,
      "Ġtext": 6178,
      "Ġcoll": 6179,
      "Ġhoarding": 6180,
      "ocking": 6181,
      "Ġbelt": 6182,
      "Ġentr": 6183,
      "Ġgreatest": 6184,
      "Ġextravag": 6185,
      "Ġchoir": 6186,
      "Ġexpecting": 6187,
      "Ġpatter": 6188,
      "Ġparachutes": 6189,
      "Ġpassionately": 6190,
      "Ġsandcastle": 6191,
      "Ġreports": 6192,
      "vin": 6193,
      "Ġnights": 6194,
      "Ġshield": 6195,
      "Ġhell": 6196,
      "ilarious": 6197,
      "ĠOstr": 6198,
      "Ġsugar": 6199,
      "Ġhistory": 6200,
      "ĠLiving": 6201,
      "Ġgoals": 6202,
      "Ġfellow": 6203,
      "Ġprocess": 6204,
      "Ġdiffic": 6205,
      "Ġdelight": 6206,
      "Ġspecialized": 6207,
      "Ġexploration": 6208,
      "Ġflavors": 6209,
      "Ġgalaxy": 6210,
      "Ġostriches": 6211,
      "Ġnoodles": 6212,
      "Ġdegree": 6213,
      "dane": 6214,
      "dressed": 6215,
      "Ġfowl": 6216,
      "arry": 6217,
      "lican": 6218,
      "antas": 6219,
      "olts": 6220,
      "ĠFine": 6221,
      "Ġdisp": 6222,
      "lestial": 6223,
      "Ġprint": 6224,
      "vention": 6225,
      "Ġfirefighting": 6226,
      "ĠEarthlings": 6227,
      "Ġcelestial": 6228,
      "Ġsociety": 6229,
      "Ġmarine": 6230,
      "enced": 6231,
      "Ġhunt": 6232,
      "Ġhunting": 6233,
      "Ġbattling": 6234,
      "Ġsweat": 6235,
      "Ġextraordinary": 6236,
      "Ġvolcan": 6237,
      "Ġbeautifully": 6238,
      "Ġuniversal": 6239,
      "ĠBob": 6240,
      "ĠFeet": 6241,
      "Ġexcitement": 6242,
      "Ġremain": 6243,
      "Ġgesturing": 6244,
      "Ġphoto": 6245,
      "Ġmaterial": 6246,
      "Ġconstruct": 6247,
      "Ġcrashing": 6248,
      "Ġportra": 6249,
      "Ġtournament": 6250,
      "ĠLlamas": 6251,
      "\"?": 6252,
      "aker": 6253,
      "yers": 6254,
      "Ġic": 6255,
      "Ġpill": 6256,
      "endant": 6257,
      "Ġtoe": 6258,
      "Ġplum": 6259,
      "Ġfishbow": 6260,
      "Ġbalanced": 6261,
      "Ġpatients": 6262,
      "Ġscary": 6263,
      "Ġwilder": 6264,
      "Ġinsurance": 6265,
      "Ġsafely": 6266,
      "Ġwatermelons": 6267,
      "Ġdisappearing": 6268,
      "Ġdesperately": 6269,
      "olutely": 6270,
      "mill": 6271,
      "mony": 6272,
      "Ġuncanny": 6273,
      "Ġcotton": 6274,
      "addle": 6275,
      "Ġrecre": 6276,
      "nder": 6277,
      "Ġparts": 6278,
      "ĠCra": 6279,
      "Ġfrisbee": 6280,
      "ĠMa": 6281,
      "Ġcheat": 6282,
      "Ġvar": 6283,
      "Ġdescr": 6284,
      "Ġshelves": 6285,
      "Ġjoke": 6286,
      "Ġappearing": 6287,
      "Ġbothered": 6288,
      "Ġdelicac": 6289,
      "Ġcircles": 6290,
      "themed": 6291,
      "Ġclaws": 6292,
      "Ġsandcastles": 6293,
      "urassic": 6294,
      "book": 6295,
      "hat": 6296,
      "hema": 6297,
      "Ġpand": 6298,
      "ĠAlien": 6299,
      "ĠTour": 6300,
      "ĠTake": 6301,
      "Ġlog": 6302,
      "Ġnoses": 6303,
      "Ġstacking": 6304,
      "Ġdozens": 6305,
      "Ġhealth": 6306,
      "Ġchance": 6307,
      "Ġjustice": 6308,
      "ĠOctopus": 6309,
      "Ġwaist": 6310,
      "Ġexplo": 6311,
      "thm": 6312,
      "Ġsheet": 6313,
      "Ġinteract": 6314,
      "ulously": 6315,
      "ĠLady": 6316,
      "Ġpsycholog": 6317,
      "Ġpractical": 6318,
      "ĠIntern": 6319,
      "rinking": 6320,
      "what": 6321,
      "Ġboogie": 6322,
      "Ġceremony": 6323,
      "Ġzebras": 6324,
      "ĠPrep": 6325,
      "ĠPirates": 6326,
      "Ġentrance": 6327,
      "!!": 6328,
      "\",": 6329,
      "ged": 6330,
      "sical": 6331,
      "ycl": 6332,
      "Ġlock": 6333,
      "storm": 6334,
      "urry": 6335,
      "ram": 6336,
      "Ġsplit": 6337,
      "Ġrocking": 6338,
      "ney": 6339,
      "Ġworse": 6340,
      "ĠBet": 6341,
      "Ġgamble": 6342,
      "Ġshowdown": 6343,
      "Ġpeeking": 6344,
      "Ġtrek": 6345,
      "Ġlabor": 6346,
      "Ġimpressed": 6347,
      "Ġeasily": 6348,
      "Ġmundane": 6349,
      "Ġproperty": 6350,
      "Ġdocument": 6351,
      "Ġharmon": 6352,
      "Ġbarbecuing": 6353,
      "Ġestablishment": 6354,
      "Ġspreadsheets": 6355,
      "ĠBabies": 6356,
      "Ġcivilized": 6357,
      "Ġrhythm": 6358,
      "ĠOstriches": 6359,
      "iques": 6360,
      "Ġwrap": 6361,
      "Ġweren": 6362,
      "Ġhilarious": 6363,
      "unity": 6364,
      "Ġlane": 6365,
      "icker": 6366,
      "Ġkilled": 6367,
      "Ġunb": 6368,
      "Ġchain": 6369,
      "Ġmaps": 6370,
      "terest": 6371,
      "Ġpaj": 6372,
      "Ġsnacking": 6373,
      "Ġcruis": 6374,
      "Ġfell": 6375,
      "Ġextended": 6376,
      "Ġfinds": 6377,
      "Ġenter": 6378,
      "Ġfarmers": 6379,
      "Ġclubs": 6380,
      "Ġterror": 6381,
      "Ġfurry": 6382,
      "gram": 6383,
      "ĠWorld": 6384,
      "Ġcelebr": 6385,
      "Ġsentient": 6386,
      "ios": 6387,
      "now": 6388,
      "years": 6389,
      "Ġacade": 6390,
      "Ġmim": 6391,
      "Ġtom": 6392,
      "usive": 6393,
      "Ġuncom": 6394,
      "Ġshore": 6395,
      "Ġshaking": 6396,
      "Ġlem": 6397,
      "ĠPicnic": 6398,
      "Ġcarried": 6399,
      "Ġrealized": 6400,
      "Ġbarbers": 6401,
      "Ġstopped": 6402,
      "Ġconsider": 6403,
      "Ġshapes": 6404,
      "ointment": 6405,
      "Ġhazard": 6406,
      "Ġpedals": 6407,
      "Ġdropped": 6408,
      "ĠActually": 6409,
      "Ġsilverware": 6410,
      "ĠOctopuses": 6411,
      "Ġsort": 6412,
      "erg": 6413,
      "Ġping": 6414,
      "Ġdared": 6415,
      "Ġmad": 6416,
      "Ġmanaged": 6417,
      "Ġchop": 6418,
      "ĠHang": 6419,
      "ĠHave": 6420,
      "Ġbutton": 6421,
      "ĠMarshmall": 6422,
      "ĠBear": 6423,
      "Ġbored": 6424,
      "Ġdisrup": 6425,
      "udes": 6426,
      "Ġsoon": 6427,
      "ĠEither": 6428,
      "Ġheadline": 6429,
      "Ġdied": 6430,
      "aware": 6431,
      "Ġnearly": 6432,
      "letes": 6433,
      "Ġmathema": 6434,
      "ĠBecause": 6435,
      "Ġfreely": 6436,
      "ĠUnicycles": 6437,
      "Ġaffair": 6438,
      "Ġlearn": 6439,
      "Ġchampions": 6440,
      "ĠMoooove": 6441,
      "Ġpassenger": 6442,
      "Ġanatomy": 6443,
      "Ġeasel": 6444,
      "Ġdouble": 6445,
      "ĠPedestrians": 6446,
      "Ġlemons": 6447,
      "free": 6448,
      "ican": 6449,
      "sw": 6450,
      "sion": 6451,
      "Ġsens": 6452,
      "ouds": 6453,
      "Ġpens": 6454,
      "Ġfed": 6455,
      "Ġforth": 6456,
      "Ġyes": 6457,
      "ĠParrots": 6458,
      "Ġchimpanzees": 6459,
      "Ġbrew": 6460,
      "Ġcontin": 6461,
      "Ġhardly": 6462,
      "Ġlandscap": 6463,
      "Ġtalented": 6464,
      "Ġcompanion": 6465,
      "Ġbutterflies": 6466,
      "Ġsparkly": 6467,
      "Ġcaptivated": 6468,
      "Ġhundreds": 6469,
      "Ġrecreational": 6470,
      "Ġtrekking": 6471,
      "oin": 6472,
      "Ġaster": 6473,
      "Ġtide": 6474,
      "ingers": 6475,
      "Ġhid": 6476,
      "Ġhits": 6477,
      "Ġtask": 6478,
      "Ġja": 6479,
      "Ġconcent": 6480,
      "ĠMimes": 6481,
      "Ġprevious": 6482,
      "Ġopening": 6483,
      "Ġseries": 6484,
      "Ġheadphones": 6485,
      "Ġsurrounds": 6486,
      "Ġplanning": 6487,
      "Ġfinished": 6488,
      "velous": 6489,
      "Ġagility": 6490,
      "Ġflippin": 6491,
      "Ġamount": 6492,
      "Ġrequires": 6493,
      "Ġedition": 6494,
      "Ġeduca": 6495,
      "Ġpainted": 6496,
      "Ġbuckets": 6497,
      "mato": 6498,
      "Ġsnorkel": 6499,
      "Ġtunes": 6500,
      "Ġexha": 6501,
      "ĠVeg": 6502,
      "Ġmotorc": 6503,
      "Ġpockets": 6504,
      "ĠBanana": 6505,
      "Ġindoor": 6506,
      "Ġrenowned": 6507,
      "Ġemergency": 6508,
      "Ġscattered": 6509,
      "Ġvariety": 6510,
      "Ġpajamas": 6511,
      "eed": 6512,
      "gest": 6513,
      "za": 6514,
      "Ġille": 6515,
      "cake": 6516,
      "Ġwig": 6517,
      "Ġwrest": 6518,
      "Ġhors": 6519,
      "aries": 6520,
      "Ġtomato": 6521,
      "idence": 6522,
      "chie": 6523,
      "raising": 6524,
      "outs": 6525,
      "Ġkilling": 6526,
      "Ġsell": 6527,
      "Ġunaware": 6528,
      "ĠSna": 6529,
      "geon": 6530,
      "Ġspir": 6531,
      "ols": 6532,
      "others": 6533,
      "uals": 6534,
      "inding": 6535,
      "Ġsauce": 6536,
      "Ġcranes": 6537,
      "Ġballer": 6538,
      "ĠUnder": 6539,
      "Ġimpro": 6540,
      "aret": 6541,
      "breaking": 6542,
      "Ġhorseback": 6543,
      "Ġamb": 6544,
      "Ġwrite": 6545,
      "Ġfreeze": 6546,
      "Ġfallen": 6547,
      "Ġrides": 6548,
      "Ġbeaming": 6549,
      "Ġproductive": 6550,
      "Ġconsume": 6551,
      "Ġcomfortable": 6552,
      "Ġlicens": 6553,
      "Ġflexibility": 6554,
      "ĠChillin": 6555,
      "Ġoccupied": 6556,
      "Ġvolcano": 6557,
      "ĠInternational": 6558,
      "OU": 6559,
      "ders": 6560,
      "foot": 6561,
      "with": 6562,
      "Ġsne": 6563,
      "tier": 6564,
      "Ġfans": 6565,
      "under": 6566,
      "orous": 6567,
      "Ġmes": 6568,
      "Ġmental": 6569,
      "ends": 6570,
      "Ġtoilet": 6571,
      "Ġep": 6572,
      "urious": 6573,
      "ĠPar": 6574,
      "ecting": 6575,
      "ĠCir": 6576,
      "Ġfrying": 6577,
      "Ġtrust": 6578,
      "Ġaction": 6579,
      "Ġoffer": 6580,
      "ĠBon": 6581,
      "Ġdrone": 6582,
      "Ġcoach": 6583,
      "Ġheading": 6584,
      "Ġslides": 6585,
      "Ġcolors": 6586,
      "Ġsuperp": 6587,
      "Ġaccord": 6588,
      "Ġprotect": 6589,
      "Ġpotted": 6590,
      "aneously": 6591,
      "Ġfollowed": 6592,
      "Ġfigur": 6593,
      "Ġskillfully": 6594,
      "Ġconsuming": 6595,
      "Ġgraphs": 6596,
      "Ġcomposed": 6597,
      "Ġannoyed": 6598,
      "Ġgraveyard": 6599,
      "Ġsimply": 6600,
      "ĠPrepare": 6601,
      "Ġexhaust": 6602,
      "ini": 6603,
      "Ġtiming": 6604,
      "Ġtoddler": 6605,
      "Ġlying": 6606,
      "stones": 6607,
      "ettes": 6608,
      "rog": 6609,
      "Ġnotor": 6610,
      "icated": 6611,
      "Ġseas": 6612,
      "Ġseating": 6613,
      "Ġtractor": 6614,
      "Ġswords": 6615,
      "Ġsometimes": 6616,
      "ĠEgg": 6617,
      "ĠHere": 6618,
      "Ġsail": 6619,
      "Ġneeding": 6620,
      "Ġcoop": 6621,
      "aws": 6622,
      "Ġmatches": 6623,
      "ibble": 6624,
      "Ġsignif": 6625,
      "ĠClouds": 6626,
      "Ġstartled": 6627,
      "Ġrefres": 6628,
      "Ġrule": 6629,
      "Ġguitars": 6630,
      "Ġhammocks": 6631,
      "noon": 6632,
      "Ġextinguis": 6633,
      "Ġconstructing": 6634,
      "Ġpocket": 6635,
      "ompan": 6636,
      "Ġresemble": 6637,
      "Ġinstant": 6638,
      "Ġflashy": 6639,
      "ĠSnails": 6640,
      "away": 6641,
      "bird": 6642,
      "oly": 6643,
      "rying": 6644,
      "inal": 6645,
      "inating": 6646,
      "owls": 6647,
      "star": 6648,
      "ictor": 6649,
      "Ġearly": 6650,
      "Ġreve": 6651,
      "Ġleather": 6652,
      "aps": 6653,
      "Ġcattle": 6654,
      "Ġprogram": 6655,
      "Ġslope": 6656,
      "Ġdiv": 6657,
      "Ġpolite": 6658,
      "Ġtightropes": 6659,
      "Ġdangerously": 6660,
      "Ġprepared": 6661,
      "Ġudder": 6662,
      "Ġsmooth": 6663,
      "Ġcornfield": 6664,
      "Ġgeneral": 6665,
      "ĠBalloons": 6666,
      "Ġrollerbla": 6667,
      "Ġfondness": 6668,
      "Ġcruising": 6669,
      "Ġmesmer": 6670,
      "friend": 6671,
      "list": 6672,
      "par": 6673,
      "shing": 6674,
      "hel": 6675,
      "Ġbank": 6676,
      "Ġpowers": 6677,
      "Ġfir": 6678,
      "Ġfold": 6679,
      "Ġwhatever": 6680,
      "Ġunn": 6681,
      "ĠWall": 6682,
      "ĠWill": 6683,
      "ĠHouse": 6684,
      "Ġactive": 6685,
      "Ġtablets": 6686,
      "Ġword": 6687,
      "Ġteach": 6688,
      "ormal": 6689,
      "Ġblending": 6690,
      "Ġbride": 6691,
      "ĠWhite": 6692,
      "Ġpresents": 6693,
      "Ġtechniques": 6694,
      "emble": 6695,
      "ĠStation": 6696,
      "Ġhelps": 6697,
      "goti": 6698,
      "Ġideas": 6699,
      "Ġyellow": 6700,
      "Ġathletes": 6701,
      "Ġblazing": 6702,
      "ĠTell": 6703,
      "Ġdramatically": 6704,
      "ography": 6705,
      "Ġbouquet": 6706,
      "ĠTraffic": 6707,
      "Ġdifficult": 6708,
      "Ġplummet": 6709,
      "Just": 6710,
      "aber": 6711,
      "aint": 6712,
      "Ġagg": 6713,
      "Ġcycl": 6714,
      "Ġfetch": 6715,
      "Ġdates": 6716,
      "ĠAh": 6717,
      "roud": 6718,
      "Ġsees": 6719,
      "Ġspook": 6720,
      "Ġarri": 6721,
      "Ġactions": 6722,
      "ĠMore": 6723,
      "Ġgoat": 6724,
      "ĠGold": 6725,
      "Ġenjoys": 6726,
      "Ġbald": 6727,
      "ĠChrist": 6728,
      "entially": 6729,
      "ability": 6730,
      "velop": 6731,
      "Ġopera": 6732,
      "Ġunderstands": 6733,
      "Ġequations": 6734,
      "Ġdisappoin": 6735,
      "ĠTrust": 6736,
      "Ġpads": 6737,
      "literally": 6738,
      "Ġsquad": 6739,
      "Ġreservation": 6740,
      "Ġrecommend": 6741,
      "Ġarrange": 6742,
      "Ġrecognize": 6743,
      "Ġdarling": 6744,
      "Ġasteroid": 6745,
      "Ġrefreshing": 6746,
      "az": 6747,
      "houses": 6748,
      "Ġsli": 6749,
      "Ġproud": 6750,
      "Ġfingers": 6751,
      "orrow": 6752,
      "Ġmate": 6753,
      "Ġstumble": 6754,
      "Ġorb": 6755,
      "Ġspilling": 6756,
      "Ġrats": 6757,
      "ĠPres": 6758,
      "asion": 6759,
      "Ġcontemp": 6760,
      "ĠOK": 6761,
      "Ġvan": 6762,
      "ubs": 6763,
      "Ġapplying": 6764,
      "Ġfeature": 6765,
      "Ġlooked": 6766,
      "Ġsetup": 6767,
      "Ġthrilling": 6768,
      "Ġhitting": 6769,
      "Ġmetho": 6770,
      "Ġtechnique": 6771,
      "ĠWaiters": 6772,
      "Ġbunny": 6773,
      "Ġreservations": 6774,
      "Ġknees": 6775,
      "Ġscrolling": 6776,
      "Ġnamed": 6777,
      "Ġsprink": 6778,
      "Ġillegal": 6779,
      "Ġaggressive": 6780,
      "bows": 6781,
      "fly": 6782,
      "real": 6783,
      "isse": 6784,
      "Ġdark": 6785,
      "Ġseek": 6786,
      "Ġsubs": 6787,
      "Ġworm": 6788,
      "Ġcovers": 6789,
      "Ġopened": 6790,
      "ĠInanimate": 6791,
      "Ġhover": 6792,
      "Ġpoolside": 6793,
      "Ġcommit": 6794,
      "Ġjogg": 6795,
      "Ġregula": 6796,
      "Ġresp": 6797,
      "Ġprofessionals": 6798,
      "Ġhungry": 6799,
      "Ġcompetitions": 6800,
      "Ġafternoon": 6801,
      "Ġseafood": 6802,
      "ortun": 6803,
      "Ġmustache": 6804,
      "Ġglitter": 6805,
      "Ġsmiles": 6806,
      "Ġriders": 6807,
      "Ġcleaning": 6808,
      "Ġbathtubs": 6809,
      "Ġsupply": 6810,
      "Ġemotional": 6811,
      "Ġembracing": 6812,
      "Ġphotos": 6813,
      "Ġanatomical": 6814,
      "Ġcongreg": 6815,
      "wheel": 6816,
      "Ġjazz": 6817,
      "Ġextinguisher": 6818,
      "eyed": 6819,
      "filled": 6820,
      "zzing": 6821,
      "Ġachie": 6822,
      "Ġdunks": 6823,
      "sted": 6824,
      "Ġcafes": 6825,
      "Ġrink": 6826,
      "ectives": 6827,
      "ĠCars": 6828,
      "ĠFlipp": 6829,
      "Ġsoap": 6830,
      "ĠJurassic": 6831,
      "Ġlava": 6832,
      "ĠAny": 6833,
      "Ġapples": 6834,
      "ĠRock": 6835,
      "Ġbab": 6836,
      "Ġsettle": 6837,
      "Ġdangling": 6838,
      "Ġinterests": 6839,
      "ĠSpaces": 6840,
      "Ġlevitate": 6841,
      "Ġinjury": 6842,
      "Ġsteps": 6843,
      "Ġindustr": 6844,
      "Ġsaucer": 6845,
      "ĠGrandma": 6846,
      "Ġhamburger": 6847,
      "Ġlaundry": 6848,
      "ĠYeehaw": 6849,
      "Ġcommunicating": 6850,
      "Ġmaneuvering": 6851,
      "Ġexplorer": 6852,
      "Ġflawlessly": 6853,
      "Ġhidden": 6854,
      "gain": 6855,
      "most": 6856,
      "Ġtack": 6857,
      "oni": 6858,
      "anting": 6859,
      "Ġfantas": 6860,
      "uth": 6861,
      "uters": 6862,
      "Ġjester": 6863,
      "Ġroaring": 6864,
      "ĠHappy": 6865,
      "Ġpotion": 6866,
      "neath": 6867,
      "Ġcans": 6868,
      "Ġcandles": 6869,
      "ĠDad": 6870,
      "Ġcompl": 6871,
      "Ġcompla": 6872,
      "Ġapparently": 6873,
      "Ġopin": 6874,
      "rones": 6875,
      "ĠRubber": 6876,
      "Ġbreat": 6877,
      "Ġpepper": 6878,
      "Ġinterview": 6879,
      "Ġmatching": 6880,
      "Ġrepair": 6881,
      "Ġpastries": 6882,
      "Ġexamine": 6883,
      "Ġdetectives": 6884,
      "Ġcoconuts": 6885,
      "Ġavian": 6886,
      "Ġtourist": 6887,
      "Ġgroove": 6888,
      "Ġcreepy": 6889,
      "Ġdisguises": 6890,
      "Ġcubic": 6891,
      "Ġdimly": 6892,
      "defying": 6893,
      "Ġspooky": 6894,
      "Ġsubstit": 6895,
      "It": 6896,
      "Rex": 6897,
      "bing": 6898,
      "rib": 6899,
      "sl": 6900,
      "erals": 6901,
      "Ġbucking": 6902,
      "Ġbolts": 6903,
      "Ġpon": 6904,
      "Ġhar": 6905,
      "estic": 6906,
      "ĠTw": 6907,
      "Ġspice": 6908,
      "ĠPer": 6909,
      "Ġfright": 6910,
      "Ġplain": 6911,
      "Ġplot": 6912,
      "Ġquacking": 6913,
      "Ġscience": 6914,
      "Ġkittens": 6915,
      "Ġsuited": 6916,
      "Ġsteel": 6917,
      "Ġconsists": 6918,
      "ception": 6919,
      "Ġgrillin": 6920,
      "Ġmetaph": 6921,
      "Ġfaster": 6922,
      "noisse": 6923,
      "Ġhearts": 6924,
      "Ġhonest": 6925,
      "Ġcollection": 6926,
      "Ġquestioning": 6927,
      "Ġcravings": 6928,
      "Ġpaintbrushes": 6929,
      "ĠSwan": 6930,
      "Ġmodel": 6931,
      "Ġgentleman": 6932,
      "Ġwilderness": 6933,
      "ER": 6934,
      "tl": 6935,
      "walks": 6936,
      "cale": 6937,
      "anza": 6938,
      "Ġmig": 6939,
      "llo": 6940,
      "Ġwhales": 6941,
      "Ġkicking": 6942,
      "Ġnegoti": 6943,
      "ections": 6944,
      "Ġfloa": 6945,
      "ĠNorth": 6946,
      "ĠHey": 6947,
      "Ġseren": 6948,
      "Ġbricks": 6949,
      "Ġstir": 6950,
      "Ġfamili": 6951,
      "Ġclassical": 6952,
      "Ġtoasters": 6953,
      "Ġvisor": 6954,
      "ĠSheep": 6955,
      "Ġbathrobe": 6956,
      "ology": 6957,
      "Ġcontrolling": 6958,
      "Ġreplica": 6959,
      "Ġslippery": 6960,
      "Ġsnorkels": 6961,
      "Ġemotions": 6962,
      "Ġllama": 6963,
      "block": 6964,
      "Ġshallow": 6965,
      "Ġevolution": 6966,
      "ĠEnglish": 6967,
      "Ġvastness": 6968,
      "Ġpineapp": 6969,
      "Ġbuddy": 6970,
      "ĠChristmas": 6971,
      "OO": 6972,
      "Ġaware": 6973,
      "ĠAge": 6974,
      "Ġloud": 6975,
      "Ġdonuts": 6976,
      "Ġspa": 6977,
      "Ġroles": 6978,
      "uling": 6979,
      "ĠBal": 6980,
      "Ġletter": 6981,
      "ĠDis": 6982,
      "Ġgrin": 6983,
      "anger": 6984,
      "Ġfeat": 6985,
      "Ġdressing": 6986,
      "Ġroasted": 6987,
      "Ġrealistic": 6988,
      "Ġattendant": 6989,
      "Ġaccompan": 6990,
      "flop": 6991,
      "Ġpartying": 6992,
      "Ġrainbows": 6993,
      "Ġdisplayed": 6994,
      "Ġinterrupting": 6995,
      "000": 6996,
      "Ġmoooove": 6997,
      "Ġpatrons": 6998,
      "Ġheroic": 6999,
      "presso": 7000,
      "ĠGravity": 7001,
      "savvy": 7002,
      "ĠYork": 7003,
      "Ġdaredevil": 7004,
      "PS": 7005,
      "aff": 7006,
      "boo": 7007,
      "rated": 7008,
      "tiest": 7009,
      "Ġhate": 7010,
      "Ġhunch": 7011,
      "Ġfunk": 7012,
      "Ġansw": 7013,
      "oose": 7014,
      "Ġears": 7015,
      "idential": 7016,
      "Ġyarn": 7017,
      "ĠCom": 7018,
      "iles": 7019,
      "Ġrods": 7020,
      "Ġexpected": 7021,
      "Ġasking": 7022,
      "ager": 7023,
      "Ġblocks": 7024,
      "Ġprops": 7025,
      "bered": 7026,
      "Ġmooing": 7027,
      "Ġlawyers": 7028,
      "Ġinvasion": 7029,
      "Ġislands": 7030,
      "Ġhangs": 7031,
      "Ġmouths": 7032,
      "Ġcontest": 7033,
      "ĠVictor": 7034,
      "Ġstarring": 7035,
      "Ġdeadly": 7036,
      "Ġscaring": 7037,
      "Ġsuitcases": 7038,
      "Ġ99": 7039,
      "Ġwhiskey": 7040,
      "Ġnoticed": 7041,
      "Ġpirouette": 7042,
      "Ġdepartment": 7043,
      "Ġvirtually": 7044,
      "Ġbounc": 7045,
      "Ġarchitectural": 7046,
      "Ġlunar": 7047,
      "Ġconquer": 7048,
      "Ġplummeting": 7049,
      "Ġdisappointed": 7050,
      "wards": 7051,
      "interest": 7052,
      "Ġtill": 7053,
      "Ġwink": 7054,
      "Ġcord": 7055,
      "Ġgla": 7056,
      "ĠAir": 7057,
      "ĠTSA": 7058,
      "Ġlater": 7059,
      "ĠSam": 7060,
      "ĠPaper": 7061,
      "Ġjour": 7062,
      "Ġtrim": 7063,
      "ĠFlam": 7064,
      "ĠNever": 7065,
      "Ġopport": 7066,
      "Ġbrother": 7067,
      "Ġhandling": 7068,
      "Ġguide": 7069,
      "Ġclowning": 7070,
      "ontro": 7071,
      "Ġsynchron": 7072,
      "Ġdiag": 7073,
      "Ġskyline": 7074,
      "Ġbehave": 7075,
      "rooms": 7076,
      "Ġrunway": 7077,
      "Ġclimbers": 7078,
      "Ġreserved": 7079,
      "Ġbands": 7080,
      "Ġcareers": 7081,
      "ĠMeow": 7082,
      "ĠTea": 7083,
      "while": 7084,
      "Ġhotdogs": 7085,
      "ĠBringing": 7086,
      "Ġweapon": 7087,
      "Ġluxurious": 7088,
      "Ġmingling": 7089,
      "ortunately": 7090,
      "ĠSpaceships": 7091,
      "cool": 7092,
      "word": 7093,
      "ench": 7094,
      "Ġhire": 7095,
      "ites": 7096,
      "acon": 7097,
      "uses": 7098,
      "Ġstatue": 7099,
      "Ġeffic": 7100,
      "ums": 7101,
      "Ġmetic": 7102,
      "Ġtrips": 7103,
      "phus": 7104,
      "ffering": 7105,
      "ountain": 7106,
      "Ġquaint": 7107,
      "Ġbarny": 7108,
      "Ġholes": 7109,
      "Ġbehaving": 7110,
      "Ġlob": 7111,
      "Ġlanding": 7112,
      "Ġpointer": 7113,
      "Ġcookies": 7114,
      "Ġunfo": 7115,
      "Ġdripping": 7116,
      "Ġavid": 7117,
      "Ġimportance": 7118,
      "Ġcommunity": 7119,
      "Ġpaddle": 7120,
      "ĠZe": 7121,
      "Ġrecording": 7122,
      "Ġsuggests": 7123,
      "Ġlicense": 7124,
      "Ġracco": 7125,
      "Ġopponent": 7126,
      "Ġtitled": 7127,
      "Ġpunishment": 7128,
      "Ġcyclists": 7129,
      "Ġcontempl": 7130,
      "',": 7131,
      "ey": 7132,
      "kill": 7133,
      "nas": 7134,
      "oire": 7135,
      "care": 7136,
      "tify": 7137,
      "Ġwast": 7138,
      "stret": 7139,
      "Ġforward": 7140,
      "uries": 7141,
      "cha": 7142,
      "Ġshuffle": 7143,
      "Ġhey": 7144,
      "ĠHop": 7145,
      "Ġmaid": 7146,
      "Ġbystand": 7147,
      "ĠFarm": 7148,
      "Ġcanvas": 7149,
      "tering": 7150,
      "Ġbuzzing": 7151,
      "Ġmyself": 7152,
      "Ġprobe": 7153,
      "Ġguards": 7154,
      "ertoire": 7155,
      "Ġintervie": 7156,
      "ĠClown": 7157,
      "Ġrepertoire": 7158,
      "Ġgrandma": 7159,
      "Ġbathing": 7160,
      "flops": 7161,
      "Ġweightless": 7162,
      "Ġedible": 7163,
      "ĠâĢĶ": 7164,
      "ĠShould": 7165,
      "Ġtells": 7166,
      "Ġproblems": 7167,
      "Ġuniforms": 7168,
      "Ġpowerful": 7169,
      "Ġslee": 7170,
      "ĠBoy": 7171,
      "Ġmillion": 7172,
      "ĠJoh": 7173,
      "Ġtestim": 7174,
      "ĠMarshmallows": 7175,
      "interested": 7176,
      "iking": 7177,
      "just": 7178,
      "ked": 7179,
      "mm": 7180,
      "mies": 7181,
      "resh": 7182,
      "Ġpal": 7183,
      "Ġpist": 7184,
      "Ġcrap": 7185,
      "Ġharsh": 7186,
      "stood": 7187,
      "Ġmanning": 7188,
      "andem": 7189,
      "sea": 7190,
      "ĠPark": 7191,
      "Ġknit": 7192,
      "Ġchamele": 7193,
      "asure": 7194,
      "ĠHitch": 7195,
      "Ġuphill": 7196,
      "Ġsuffering": 7197,
      "Ġworst": 7198,
      "ubble": 7199,
      "Ġblown": 7200,
      "Ġprince": 7201,
      "Ġattacking": 7202,
      "oths": 7203,
      "beat": 7204,
      "Ġcarries": 7205,
      "Ġflies": 7206,
      "Ġpreferred": 7207,
      "workers": 7208,
      "Ġcooked": 7209,
      "ivid": 7210,
      "Ġcigaret": 7211,
      "Ġeyeing": 7212,
      "Ġmastering": 7213,
      "ultaneously": 7214,
      "Ġperiods": 7215,
      "Ġcoordinated": 7216,
      "Ġoccas": 7217,
      "Ġbunnies": 7218,
      "Ġ90": 7219,
      "Ġappetit": 7220,
      "Ġimaginary": 7221,
      "Ġenthusiastically": 7222,
      "Ġdeparture": 7223,
      "Ġsimultaneously": 7224,
      "Ġguaranteed": 7225,
      "Ġpsychological": 7226,
      "ĠEggs": 7227,
      "Ġrollerblading": 7228,
      "Ġbabies": 7229,
      "Ġpepperoni": 7230,
      "bors": 7231,
      "fall": 7232,
      "kward": 7233,
      "Ġowls": 7234,
      "Ġain": 7235,
      "tick": 7236,
      "Ġpenc": 7237,
      "Ġcute": 7238,
      "Ġmonkeying": 7239,
      "Ġlose": 7240,
      "ott": 7241,
      "Ġbehead": 7242,
      "Ġunh": 7243,
      "ĠSum": 7244,
      "Ġspoon": 7245,
      "ĠCap": 7246,
      "Ġconn": 7247,
      "achy": 7248,
      "Ġdevelop": 7249,
      "Ġsucking": 7250,
      "Ġsunfl": 7251,
      "ĠBel": 7252,
      "Ġplaces": 7253,
      "cused": 7254,
      "Ġsnakes": 7255,
      "Ġdesc": 7256,
      "Ġoptions": 7257,
      "Ġcatcher": 7258,
      "Ġmount": 7259,
      "izzly": 7260,
      "Ġagree": 7261,
      "Ġmarrying": 7262,
      "Ġprofic": 7263,
      "Ġleaf": 7264,
      "Ġvegg": 7265,
      "Ġindivid": 7266,
      "Ġbookshe": 7267,
      "Ġboxing": 7268,
      "Ġmissions": 7269,
      "ski": 7270,
      "Ġneighbors": 7271,
      "Ġdisplaying": 7272,
      "Ġproduction": 7273,
      "ĠLifegu": 7274,
      "ĠKnight": 7275,
      "Ġskinny": 7276,
      "Ġwhiteboard": 7277,
      "Ġpressure": 7278,
      "forward": 7279,
      "Ġstuffed": 7280,
      "isyphus": 7281,
      "Ġanaly": 7282,
      "Ġjoggers": 7283,
      "ĠVictorian": 7284,
      "Ġbarnyard": 7285,
      "gi": 7286,
      "nuts": 7287,
      "Ġ6": 7288,
      "Ġtense": 7289,
      "Ġtank": 7290,
      "Ġtandem": 7291,
      "offee": 7292,
      "Ġmine": 7293,
      "ĠAd": 7294,
      "Ġtopped": 7295,
      "eds": 7296,
      "oty": 7297,
      "othered": 7298,
      "Ġreward": 7299,
      "ersby": 7300,
      "ĠCle": 7301,
      "Ġconve": 7302,
      "Ġcloth": 7303,
      "Ġbutt": 7304,
      "Ġvia": 7305,
      "Ġbuds": 7306,
      "Ġspaceman": 7307,
      "Ġsawing": 7308,
      "ĠYOU": 7309,
      "Ġgetaway": 7310,
      "Ġthanks": 7311,
      "ĠChamele": 7312,
      "Ġhorror": 7313,
      "Ġflair": 7314,
      "Ġperformer": 7315,
      "Ġgreet": 7316,
      "Ġforecast": 7317,
      "ĠKit": 7318,
      "Ġvisitors": 7319,
      "Ġcastles": 7320,
      "Ġaddiction": 7321,
      "Ġspectators": 7322,
      "Ġlimited": 7323,
      "Ġmirroring": 7324,
      "ĠFeather": 7325,
      "ĠFeathered": 7326,
      "Ġawkward": 7327,
      "Ġrowboat": 7328,
      "Ġbarbecues": 7329,
      "Ġengineers": 7330,
      "Ġpitcher": 7331,
      "ĠLocal": 7332,
      "Ġsavanna": 7333,
      "Ġcalcul": 7334,
      "Ġdelicacies": 7335,
      "Ġtomorrow": 7336,
      "Ġbarbershop": 7337,
      "ĠVegas": 7338,
      "Ġfrightened": 7339,
      "Ġfloaties": 7340,
      "Ġmeticulously": 7341,
      "Ġbystanders": 7342,
      "eer": 7343,
      "fin": 7344,
      "cat": 7345,
      "Ġgate": 7346,
      "ĠTH": 7347,
      "omping": 7348,
      "Ġear": 7349,
      "Ġseve": 7350,
      "Ġdod": 7351,
      "Ġsperm": 7352,
      "Ġringing": 7353,
      "Ġranch": 7354,
      "asants": 7355,
      "Ġconnoisse": 7356,
      "ĠMic": 7357,
      "ĠDiving": 7358,
      "Ġperusing": 7359,
      "Ġvict": 7360,
      "aken": 7361,
      "Ġcolum": 7362,
      "Ġplanes": 7363,
      "Ġformed": 7364,
      "Ġformations": 7365,
      "Ġinterrog": 7366,
      "ibed": 7367,
      "Ġconsent": 7368,
      "Ġindica": 7369,
      "Ġbaton": 7370,
      "flight": 7371,
      "Ġdepths": 7372,
      "ĠCheers": 7373,
      "Ġelevators": 7374,
      "Ġspectacle": 7375,
      "Ġlifeguards": 7376,
      "Ġideal": 7377,
      "Ġfourth": 7378,
      "Ġbreadcr": 7379,
      "Ġcrashed": 7380,
      "Ġresembling": 7381,
      "Ġastonishment": 7382,
      "Ġupgraded": 7383,
      "Ġcombination": 7384,
      "Ġqueen": 7385,
      "Ġdescribed": 7386,
      "Ġunbothered": 7387,
      "Ġsuperpowers": 7388,
      "?!": 7389,
      "RE": 7390,
      "There": 7391,
      "fowl": 7392,
      "site": 7393,
      "xies": 7394,
      "Ġtone": 7395,
      "Ġsque": 7396,
      "Ġwo": 7397,
      "anet": 7398,
      "Ġcaves": 7399,
      "ĠWizards": 7400,
      "lied": 7401,
      "ĠSer": 7402,
      "ĠSisyphus": 7403,
      "Ġtypes": 7404,
      "Ġchased": 7405,
      "Ġparents": 7406,
      "hension": 7407,
      "Ġdear": 7408,
      "Ġalle": 7409,
      "Ġabn": 7410,
      "Ġarts": 7411,
      "Ġcarpet": 7412,
      "Ġintroduc": 7413,
      "Ġboas": 7414,
      "Ġbuff": 7415,
      "ĠAnnual": 7416,
      "Ġsatis": 7417,
      "Ġcrane": 7418,
      "Ġprice": 7419,
      "Ġplayful": 7420,
      "Ġhugging": 7421,
      "Ġspells": 7422,
      "Ġsidelines": 7423,
      "Ġcount": 7424,
      "Ġgatherings": 7425,
      "Ġsporting": 7426,
      "Ġofficials": 7427,
      "Ġskiers": 7428,
      "Ġadding": 7429,
      "ĠChess": 7430,
      "ivores": 7431,
      "Ġrider": 7432,
      "ycle": 7433,
      "Ġfuriously": 7434,
      "Ġthinks": 7435,
      "ĠUnusual": 7436,
      "Ġabsolutely": 7437,
      "Ġprinted": 7438,
      "Ġlucky": 7439,
      "ĠHamster": 7440,
      "Ġbulb": 7441,
      "Ġswallows": 7442,
      "ĠEngland": 7443,
      "Ġmajestic": 7444,
      "Ġrevolution": 7445,
      "Ġlamps": 7446,
      "Ġlaboratory": 7447,
      "stretched": 7448,
      "Ġtestimony": 7449,
      "Ġpistols": 7450,
      "Ġchameleon": 7451,
      "No": 7452,
      "You": 7453,
      "but": 7454,
      "build": 7455,
      "Ġ7": 7456,
      "Ġengu": 7457,
      "Ġton": 7458,
      "tig": 7459,
      "Ġbud": 7460,
      "Ġbacon": 7461,
      "anwhile": 7462,
      "Ġdain": 7463,
      "Ġmath": 7464,
      "llip": 7465,
      "ĠTy": 7466,
      "Ġnesting": 7467,
      "ĠTherap": 7468,
      "alent": 7469,
      "igators": 7470,
      "keep": 7471,
      "Ġmanual": 7472,
      "Ġshaken": 7473,
      "ume": 7474,
      "Ġleans": 7475,
      "ĠSitting": 7476,
      "Ġoutstretched": 7477,
      "ĠCact": 7478,
      "ĠCoffee": 7479,
      "Ġconven": 7480,
      "Ġallowing": 7481,
      "Ġreader": 7482,
      "Ġpage": 7483,
      "Ġcry": 7484,
      "Ġdesire": 7485,
      "Ġopens": 7486,
      "Ġplayground": 7487,
      "Ġpropped": 7488,
      "Ġoverkill": 7489,
      "Ġcapt": 7490,
      "Ġhowever": 7491,
      "Ġstere": 7492,
      "Ġbetting": 7493,
      "Ġpolicy": 7494,
      "Ġperformers": 7495,
      "Ġladders": 7496,
      "Ġinvited": 7497,
      "Ġclimbed": 7498,
      "Ġcounters": 7499,
      "Ġloin": 7500,
      "Ġchained": 7501,
      "ustomed": 7502,
      "Ġdifferently": 7503,
      "Ġpastures": 7504,
      "ĠAlligators": 7505,
      "Ġaccustomed": 7506,
      "Ġspeedboat": 7507,
      "Ġfeels": 7508,
      "ĠMeanwhile": 7509,
      "Ġstroking": 7510,
      "Ġsounds": 7511,
      "Ġmarathons": 7512,
      "ĠRabbit": 7513,
      "Ġgalaxies": 7514,
      "avings": 7515,
      "ĠHamm": 7516,
      "Ġdiverse": 7517,
      "Ġirrit": 7518,
      "Ġscroll": 7519,
      "Ġelectricity": 7520,
      "Ġbingo": 7521,
      "Ġmeteorite": 7522,
      "Ġzooming": 7523,
      "Ġacademic": 7524,
      "Ġuncommon": 7525,
      "Ġmetaphor": 7526,
      "Ġreplicas": 7527,
      "ĠJohn": 7528,
      "ĠChameleons": 7529,
      "Ġvictory": 7530,
      "Ġindicates": 7531,
      "Ġengulf": 7532,
      "ĠTherapy": 7533,
      "ĠCactus": 7534,
      "jected": 7535,
      "nants": 7536,
      "oli": 7537,
      "ract": 7538,
      "ythe": 7539,
      "Ġaim": 7540,
      "ison": 7541,
      "isca": 7542,
      "Ġpas": 7543,
      "Ġpurch": 7544,
      "itor": 7545,
      "Ġdors": 7546,
      "llers": 7547,
      "atues": 7548,
      "ĠTry": 7549,
      "roving": 7550,
      "Ġweak": 7551,
      "ĠSP": 7552,
      "Ġspots": 7553,
      "Ġchanged": 7554,
      "Ġparti": 7555,
      "Ġwords": 7556,
      "ĠLit": 7557,
      "Ġherb": 7558,
      "Ġwaists": 7559,
      "Ġcampsite": 7560,
      "Ġmidst": 7561,
      "Ġscythe": 7562,
      "Ġconfisca": 7563,
      "Ġgotten": 7564,
      "Ġclothed": 7565,
      "Ġpeeping": 7566,
      "Ġmooving": 7567,
      "Ġstraw": 7568,
      "Ġhunters": 7569,
      "Ġmedical": 7570,
      "Ġoneself": 7571,
      "Ġconcerts": 7572,
      "Ġjungles": 7573,
      "Ġdisappointment": 7574,
      "Ġlawnm": 7575,
      "Ġremnants": 7576,
      "Ġstretch": 7577,
      "Ġcleaner": 7578,
      "Ġjeans": 7579,
      "Ġstaying": 7580,
      "ĠSwim": 7581,
      "Ġweapons": 7582,
      "ĠStep": 7583,
      "Ġexperiences": 7584,
      "Ġmanagement": 7585,
      "Ġcrisis": 7586,
      "Ġdisruptive": 7587,
      "Ġfigurines": 7588,
      "Ġnotorious": 7589,
      "embled": 7590,
      "Ġarrangement": 7591,
      "Ġcorded": 7592,
      "achyder": 7593,
      "Ġbreadcrumbs": 7594,
      "Ġabnormal": 7595,
      "Ġdorsal": 7596,
      "''": 7597,
      "And": 7598,
      "Nuts": 7599,
      "books": 7600,
      "des": 7601,
      "dwe": 7602,
      "gun": 7603,
      "pigeon": 7604,
      "uel": 7605,
      "yor": 7606,
      "inate": 7607,
      "Ġtip": 7608,
      "Ġtier": 7609,
      "Ġwid": 7610,
      "Ġhur": 7611,
      "Ġhip": 7612,
      "Ġfes": 7613,
      "ithe": 7614,
      "Ġreview": 7615,
      "Ġsewing": 7616,
      "ĠStar": 7617,
      "amboo": 7618,
      "ĠPan": 7619,
      "ĠPop": 7620,
      "Ġchoose": 7621,
      "Ġparading": 7622,
      "ĠHaber": 7623,
      "Ġcarp": 7624,
      "Ġcarto": 7625,
      "ĠBased": 7626,
      "ĠBakers": 7627,
      "pecial": 7628,
      "Ġcathed": 7629,
      "ograp": 7630,
      "Ġfireplace": 7631,
      "ĠRiding": 7632,
      "Ġstrewn": 7633,
      "Ġcommandments": 7634,
      "Ġzone": 7635,
      "Ġentering": 7636,
      "Ġvisors": 7637,
      "Ġrecipes": 7638,
      "Ġsurely": 7639,
      "Ġbakeries": 7640,
      "Ġreplace": 7641,
      "Ġspectator": 7642,
      "Ġjumped": 7643,
      "Ġinjuries": 7644,
      "Ġpositioned": 7645,
      "ĠWaiter": 7646,
      "Ġroaming": 7647,
      "Ġtested": 7648,
      "Ġchalkboard": 7649,
      "Ġanachronism": 7650,
      "Ġstrollers": 7651,
      "Ġnotices": 7652,
      "Ġattractive": 7653,
      "Ġkneading": 7654,
      "Ġtestify": 7655,
      "Ġdoub": 7656,
      "Ġsorting": 7657,
      "Ġupgrade": 7658,
      "Ġcritics": 7659,
      "Ġappreciation": 7660,
      "iosity": 7661,
      "Ġmathematical": 7662,
      "Ġsensation": 7663,
      "Ġexhausted": 7664,
      "ĠPresident": 7665,
      "Ġcongregate": 7666,
      "Ġcubicle": 7667,
      "Ġfunky": 7668,
      "ĠBelow": 7669,
      "Ġsavannah": 7670,
      "Ġintroduced": 7671,
      "Ġcathedral": 7672,
      "Nut": 7673,
      "TM": 7674,
      "aven": 7675,
      "gical": 7676,
      "ipper": 7677,
      "zer": 7678,
      "Ġax": 7679,
      "Ġack": 7680,
      "heveled": 7681,
      "cave": 7682,
      "Ġsent": 7683,
      "Ġwanting": 7684,
      "Ġpushed": 7685,
      "Ġcrou": 7686,
      "Ġcooks": 7687,
      "Ġdating": 7688,
      "Ġinfer": 7689,
      "ĠAmer": 7690,
      "eneck": 7691,
      "icious": 7692,
      "Ġhauling": 7693,
      "ldom": 7694,
      "raining": 7695,
      "Ġshavings": 7696,
      "Ġdose": 7697,
      "Ġripped": 7698,
      "Ġchomping": 7699,
      "ĠCar": 7700,
      "ĠCould": 7701,
      "Ġaside": 7702,
      "Ġflat": 7703,
      "nel": 7704,
      "Ġok": 7705,
      "agers": 7706,
      "Ġdisheveled": 7707,
      "Ġvending": 7708,
      "Ġcompon": 7709,
      "udderly": 7710,
      "Ġprior": 7711,
      "venous": 7712,
      "ĠWerew": 7713,
      "Ġproced": 7714,
      "Ġbait": 7715,
      "Ġbarely": 7716,
      "Ġpeg": 7717,
      "Ġrunners": 7718,
      "Ġmagicians": 7719,
      "Ġfashioned": 7720,
      "Ġcrazy": 7721,
      "Ġgathers": 7722,
      "Ġveget": 7723,
      "Ġnapping": 7724,
      "Ġorgans": 7725,
      "ĠToasts": 7726,
      "Ġtubes": 7727,
      "Ġevidence": 7728,
      "ĠOthers": 7729,
      "Ġdeta": 7730,
      "Ġregularly": 7731,
      "Ġgardener": 7732,
      "ĠMany": 7733,
      "Ġapartments": 7734,
      "Ġavi": 7735,
      "Ġdestination": 7736,
      "ĠPoker": 7737,
      "Ġcurator": 7738,
      "Ġcuriosity": 7739,
      "Ġsolve": 7740,
      "ĠUnf": 7741,
      "grown": 7742,
      "Ġinterrupts": 7743,
      "Ġ101": 7744,
      "Ġproperly": 7745,
      "Ġkiller": 7746,
      "Ġtroupe": 7747,
      "Ġswallowing": 7748,
      "Ġsorts": 7749,
      "Ġcommunication": 7750,
      "Ġtoppled": 7751,
      "ĠKeep": 7752,
      "Ġpatterns": 7753,
      "nowled": 7754,
      "Ġconcentration": 7755,
      "Ġsailors": 7756,
      "Ġdivor": 7757,
      "Ġarrived": 7758,
      "tleneck": 7759,
      "Ġcigarette": 7760,
      "Ġindividuals": 7761,
      "Ġbudget": 7762,
      "Ġstereoty": 7763,
      "ĠHammocks": 7764,
      "Ġacknowled": 7765,
      "An": 7766,
      "Two": 7767,
      "When": 7768,
      "ains": 7769,
      "pers": 7770,
      "pants": 7771,
      "rists": 7772,
      "some": 7773,
      "ued": 7774,
      "vent": 7775,
      "erous": 7776,
      "Ġbakers": 7777,
      "Ġpudd": 7778,
      "Ġpages": 7779,
      "Ġglam": 7780,
      "ĠATM": 7781,
      "stes": 7782,
      "acular": 7783,
      "ĠIS": 7784,
      "Ġthicker": 7785,
      "Ġseldom": 7786,
      "Ġtastes": 7787,
      "geons": 7788,
      "Ġroo": 7789,
      "Ġrings": 7790,
      "ĠPand": 7791,
      "Ġknif": 7792,
      "Ġrolled": 7793,
      "Ġmoons": 7794,
      "Ġargu": 7795,
      "ishing": 7796,
      "Ġboxed": 7797,
      "Ġteen": 7798,
      "Ġdisinterested": 7799,
      "sidered": 7800,
      "Ġsomewhat": 7801,
      "Ġpawing": 7802,
      "ĠGingerbread": 7803,
      "Ġcrook": 7804,
      "Ġstrutting": 7805,
      "Ġkeeling": 7806,
      "Ġzen": 7807,
      "Ġwalls": 7808,
      "Ġturtleneck": 7809,
      "Ġmiser": 7810,
      "Ġdiscovers": 7811,
      "Ġhung": 7812,
      "Ġappearance": 7813,
      "worth": 7814,
      "Ġbandages": 7815,
      "Ġends": 7816,
      "Ġnumerous": 7817,
      "ĠVarious": 7818,
      "Ġembed": 7819,
      "Ġpedal": 7820,
      "Ġpsychiatrists": 7821,
      "Ġpaddling": 7822,
      "Ġfeasting": 7823,
      "Ġcannonballs": 7824,
      "Ġlearning": 7825,
      "Ġrodent": 7826,
      "Ġblenders": 7827,
      "Ġbathrooms": 7828,
      "Ġboomboxes": 7829,
      "Ġresearch": 7830,
      "Ġbackpackers": 7831,
      "Ġboulders": 7832,
      "Ġcinderblock": 7833,
      "Ġzoos": 7834,
      "Ġsuggest": 7835,
      "ladas": 7836,
      "ĠMonsters": 7837,
      "Ġfairly": 7838,
      "Ġcaptivating": 7839,
      "Ġastonished": 7840,
      "Ġrecommended": 7841,
      "Ġvertically": 7842,
      "ĠBusinessmen": 7843,
      "Ġluxury": 7844,
      "ĠBuildings": 7845,
      "Ġqualified": 7846,
      "Ġfluid": 7847,
      "Ġimpaled": 7848,
      "Ġsignifies": 7849,
      "Ġmesmerized": 7850,
      "Ġregulations": 7851,
      "Ġbreathe": 7852,
      "Ġconveyor": 7853,
      "Ġalleys": 7854,
      "ĠSPF": 7855,
      "ĠWerewolves": 7856,
      "Ġknifed": 7857,
      "Ġembedded": 7858,
      "Rapunzel": 7859,
      "pre": 7860,
      "Ġtv": 7861,
      "heart": 7862,
      "Ġsopping": 7863,
      "Ġfending": 7864,
      "Ġfenced": 7865,
      "athing": 7866,
      "Ġtot": 7867,
      "Ġstored": 7868,
      "roof": 7869,
      "iddle": 7870,
      "Ġreeling": 7871,
      "ĠSoc": 7872,
      "olding": 7873,
      "Ġsprou": 7874,
      "ĠPh": 7875,
      "ĠPets": 7876,
      "ĠCol": 7877,
      "Ġfrust": 7878,
      "Ġcontain": 7879,
      "Ġseeking": 7880,
      "izes": 7881,
      "ization": 7882,
      "ĠMosquito": 7883,
      "ĠBooks": 7884,
      "eland": 7885,
      "indeer": 7886,
      "Ġhumong": 7887,
      "Ġtex": 7888,
      "Ġsomeones": 7889,
      "Ġwaze": 7890,
      "Ġgripping": 7891,
      "Ġlaid": 7892,
      "reek": 7893,
      "ĠGPS": 7894,
      "ĠGreek": 7895,
      "Ġscoop": 7896,
      "Ġconfron": 7897,
      "Ġbeauty": 7898,
      "pses": 7899,
      "Ġassisting": 7900,
      "Ġcommonplace": 7901,
      "Ġamused": 7902,
      "Ġbitten": 7903,
      "Ġdragging": 7904,
      "Ġmisunder": 7905,
      "Ġburst": 7906,
      "Ġmedevil": 7907,
      "Ġstrategizing": 7908,
      "Ġpartner": 7909,
      "Ġcasts": 7910,
      "Ġbucked": 7911,
      "Ġdentists": 7912,
      "ĠGenies": 7913,
      "ĠGenerals": 7914,
      "Ġstoryte": 7915,
      "Ġcrossings": 7916,
      "Ġacrobats": 7917,
      "Ġlectures": 7918,
      "Ġgrandmas": 7919,
      "Ġrampaging": 7920,
      "Ġtrendy": 7921,
      "Ġbreakdance": 7922,
      "Ġmermaids": 7923,
      "Ġweirdly": 7924,
      "Ġlizards": 7925,
      "Ġwashers": 7926,
      "Ġleaping": 7927,
      "Ġlocation": 7928,
      "Ġpiloted": 7929,
      "Ġbreathtaking": 7930,
      "Ġbounder": 7931,
      "quisitive": 7932,
      "Ġappropriately": 7933,
      "Ġexchanging": 7934,
      "Ġamphithe": 7935,
      "ĠSandboxes": 7936,
      "Ġinventory": 7937,
      "Ġjousted": 7938,
      "Ġsmelly": 7939,
      "Ġterrorize": 7940,
      "Ġorbiting": 7941,
      "Ġunfocused": 7942,
      "Ġwasteland": 7943,
      "Ġmaiden": 7944,
      "ĠLifeguards": 7945,
      "Ġcolumns": 7946,
      "Ġdainty": 7947,
      "Ġpartially": 7948,
      "Ġconfiscated": 7949,
      "Ġcrouched": 7950,
      "Ġacknowledging": 7951,
      "ĠMosquitoes": 7952,
      "Ġhumongous": 7953,
      "Ġamphitheater": 7954,
      "20": 7955,
      "Jack": 7956,
      "afe": 7957,
      "dress": 7958,
      "drinking": 7959,
      "fed": 7960,
      "luck": 7961,
      "oca": 7962,
      "power": 7963,
      "son": 7964,
      "trapped": 7965,
      "you": 7966,
      "Ġaer": 7967,
      "Ġti": 7968,
      "Ġhol": 7969,
      "Ġhovered": 7970,
      "Ġdomes": 7971,
      "Ġinquisitive": 7972,
      "Ġantics": 7973,
      "ĠTuba": 7974,
      "Ġthone": 7975,
      "opes": 7976,
      "Ġmanner": 7977,
      "Ġwhal": 7978,
      "Ġwhim": 7979,
      "Ġorig": 7980,
      "Ġshade": 7981,
      "antum": 7982,
      "ĠSpecial": 7983,
      "Ġranc": 7984,
      "Ġruffle": 7985,
      "Ġsketch": 7986,
      "ension": 7987,
      "ĠMet": 7988,
      "ĠFacing": 7989,
      "ĠLizard": 7990,
      "arty": 7991,
      "ĠGre": 7992,
      "Ġsafes": 7993,
      "aurant": 7994,
      "Ġappre": 7995,
      "Ġscul": 7996,
      "Ġespresso": 7997,
      "Ġhandled": 7998,
      "Ġwash": 7999,
      "ĠRi": 8000,
      "Ġlonging": 8001,
      "Ġplacement": 8002,
      "Ġrealm": 8003,
      "Ġcupboards": 8004,
      "Ġfines": 8005,
      "Ġinterrac": 8006,
      "Ġzipper": 8007,
      "Ġclassy": 8008,
      "clusive": 8009,
      "ĠBeanstalk": 8010,
      "Ġamish": 8011,
      "Ġmistake": 8012,
      "Ġhunched": 8013,
      "atural": 8014,
      "Ġsecrets": 8015,
      "Ġexpressionless": 8016,
      "Ġpancake": 8017,
      "Ġtownhouses": 8018,
      "ĠDeers": 8019,
      "Ġchoking": 8020,
      "Ġdisapproving": 8021,
      "Ġclosely": 8022,
      "Ġsoft": 8023,
      "Ġcircular": 8024,
      "Ġpinwheel": 8025,
      "Ġmassively": 8026,
      "anked": 8027,
      "Ġhonor": 8028,
      "Ġhallway": 8029,
      "Ġtossed": 8030,
      "ĠSnakes": 8031,
      "Ġledges": 8032,
      "Ġnested": 8033,
      "Ġwerewolves": 8034,
      "Ġbooby": 8035,
      "Ġwands": 8036,
      "Ġemerges": 8037,
      "titude": 8038,
      "ĠAcross": 8039,
      "Ġsharply": 8040,
      "ĠBarbecu": 8041,
      "ĠBarbecue": 8042,
      "ĠPassersby": 8043,
      "Ġexploded": 8044,
      "Ġconsiderably": 8045,
      "ĠUnderneath": 8046,
      "friendly": 8047,
      "Ġindustrial": 8048,
      "Ġdiagn": 8049,
      "Ġcontemplating": 8050,
      "skiing": 8051,
      "Ġseverely": 8052,
      "Ġweakly": 8053,
      "dwelling": 8054,
      "Ġcartoon": 8055,
      "Ġcomponents": 8056,
      "Ġrancher": 8057,
      "Ġinterracial": 8058,
      "To": 8059,
      "backed": 8060,
      "contro": 8061,
      "hr": 8062,
      "lking": 8063,
      "vored": 8064,
      "wined": 8065,
      "Ġiron": 8066,
      "Ġally": 8067,
      "Ġape": 8068,
      "heasants": 8069,
      "came": 8070,
      "Ġscann": 8071,
      "Ġwold": 8072,
      "ern": 8073,
      "outing": 8074,
      "Ġpheasants": 8075,
      "legs": 8076,
      "ataurant": 8077,
      "Ġgar": 8078,
      "Ġglad": 8079,
      "ĠTubs": 8080,
      "owered": 8081,
      "Ġlining": 8082,
      "Ġlumber": 8083,
      "Ġnine": 8084,
      "stro": 8085,
      "stocked": 8086,
      "Ġcaved": 8087,
      "ravenous": 8088,
      "Ġwhack": 8089,
      "ĠWin": 8090,
      "amm": 8091,
      "Ġoutline": 8092,
      "Ġchir": 8093,
      "Ġcontains": 8094,
      "Ġconsidered": 8095,
      "Ġexiting": 8096,
      "Ġdejected": 8097,
      "Ġtruth": 8098,
      "Ġflanked": 8099,
      "Ġsulking": 8100,
      "Ġintravenous": 8101,
      "ĠFood": 8102,
      "Ġfloe": 8103,
      "ĠDrones": 8104,
      "Ġdisass": 8105,
      "ĠEra": 8106,
      "Ġgoats": 8107,
      "Ġwaterline": 8108,
      "ĠNature": 8109,
      "Ġdefending": 8110,
      "ĠRowing": 8111,
      "Ġimplied": 8112,
      "Ġhairdry": 8113,
      "Ġcommenting": 8114,
      "Ġcommuters": 8115,
      "Ġfinal": 8116,
      "Ġwindmill": 8117,
      "Ġmoos": 8118,
      "lette": 8119,
      "Ġbigfoot": 8120,
      "Ġpolitely": 8121,
      "Ġmarches": 8122,
      "Ġcorral": 8123,
      "Ġcorpses": 8124,
      "Ġentwined": 8125,
      "Ġresataurant": 8126,
      "Ġrelation": 8127,
      "Ġbandaged": 8128,
      "Ġcostumer": 8129,
      "Ġdepending": 8130,
      "ĠAlways": 8131,
      "Ġteacup": 8132,
      "Ġpedaling": 8133,
      "Ġfigured": 8134,
      "Ġabduction": 8135,
      "Ġpurrfect": 8136,
      "Ġheartbeat": 8137,
      "Ġhindlegs": 8138,
      "Ġpurs": 8139,
      "Ġdungeon": 8140,
      "Ġemotic": 8141,
      "ĠSpacemen": 8142,
      "Ġshotgun": 8143,
      "Ġhitchhikers": 8144,
      "Ġstruct": 8145,
      "Ġunsusual": 8146,
      "Ġmeatballs": 8147,
      "Ġscenar": 8148,
      "Ġcreepily": 8149,
      "Ġessentially": 8150,
      "ĠExtra": 8151,
      "flopped": 8152,
      "Ġhunchbacked": 8153,
      "Ġglares": 8154,
      "ĠHitchhi": 8155,
      "Ġunhappy": 8156,
      "Ġbuffet": 8157,
      "Ġirritation": 8158,
      "Ġherbivores": 8159,
      "Ġmiserable": 8160,
      "Ġapprehension": 8161,
      "ĠBarbecues": 8162,
      "Ġdiagnosing": 8163,
      "Ġdisassembled": 8164,
      "''.": 8165,
      "Sam": 8166,
      "bear": 8167,
      "iency": 8168,
      "rise": 8169,
      "Ġott": 8170,
      "Ġsend": 8171,
      "Ġsous": 8172,
      "Ġpiny": 8173,
      "Ġpendant": 8174,
      "anind": 8175,
      "Ġded": 8176,
      "Ġmamm": 8177,
      "arching": 8178,
      "ĠTalent": 8179,
      "Ġluring": 8180,
      "edy": 8181,
      "alas": 8182,
      "Ġstood": 8183,
      "Ġstanind": 8184,
      "Ġeight": 8185,
      "Ġate": 8186,
      "chment": 8187,
      "rain": 8188,
      "Ġunlaw": 8189,
      "Ġungain": 8190,
      "Ġspool": 8191,
      "Ġspear": 8192,
      "ĠPipe": 8193,
      "Ġparchment": 8194,
      "ĠCold": 8195,
      "ĠCaves": 8196,
      "Ġmeg": 8197,
      "Ġmeow": 8198,
      "Ġasks": 8199,
      "astrist": 8200,
      "Ġworms": 8201,
      "ĠBest": 8202,
      "Ġsquirrelin": 8203,
      "Ġhers": 8204,
      "uded": 8205,
      "uddle": 8206,
      "Ġbeachgoers": 8207,
      "Ġragged": 8208,
      "Ġheadstones": 8209,
      "Ġshelf": 8210,
      "dding": 8211,
      "Ġsloping": 8212,
      "bell": 8213,
      "Ġbiggest": 8214,
      "Ġhammer": 8215,
      "Ġcords": 8216,
      "Ġinvade": 8217,
      "Ġlollip": 8218,
      "Ġpolicewoman": 8219,
      "ceptional": 8220,
      "Ġmovement": 8221,
      "worried": 8222,
      "Ġrefraining": 8223,
      "Ġgeni": 8224,
      "Ġskiis": 8225,
      "ĠDef": 8226,
      "Ġstarving": 8227,
      "Ġinset": 8228,
      "Ġdepict": 8229,
      "Ġpsychiastrist": 8230,
      "Ġlimit": 8231,
      "Ġhitchiking": 8232,
      "Ġradiators": 8233,
      "ĠGrandm": 8234,
      "etchup": 8235,
      "Ġstained": 8236,
      "Ġcereal": 8237,
      "Ġappetite": 8238,
      "Ġtweet": 8239,
      "Ġignores": 8240,
      "ĠBuilding": 8241,
      "Ġillusion": 8242,
      "Ġinformally": 8243,
      "flix": 8244,
      "Ġamphib": 8245,
      "Ġwishes": 8246,
      "ĠCommandments": 8247,
      "ĠGnomes": 8248,
      "Ġsweatpants": 8249,
      "Ġpillars": 8250,
      "Ġfishbowl": 8251,
      "ĠCrawling": 8252,
      "Ġfirm": 8253,
      "Ġrespons": 8254,
      "ĠMichel": 8255,
      "Ġwidth": 8256,
      "ĠUnfortunately": 8257,
      "Ġconfronting": 8258,
      "Ġmisunderstood": 8259,
      "Ġsketchy": 8260,
      "Ġemoticon": 8261,
      "ĠHitchhikers": 8262,
      "Ġottoman": 8263,
      "Ġpinyata": 8264,
      "Ġunlawful": 8265,
      "Ġungainly": 8266,
      "gle": 8267,
      "nc": 8268,
      "neck": 8269,
      "till": 8270,
      "isions": 8271,
      "Ġborn": 8272,
      "Ġbib": 8273,
      "Ġbamboo": 8274,
      "Ġpint": 8275,
      "alian": 8276,
      "idst": 8277,
      "anding": 8278,
      "enty": 8279,
      "Ġko": 8280,
      "Ġshr": 8281,
      "ĠWit": 8282,
      "Ġrack": 8283,
      "ĠCup": 8284,
      "Ġartic": 8285,
      "Ġtrucks": 8286,
      "ĠBas": 8287,
      "Ġval": 8288,
      "Ġsurgical": 8289,
      "reeze": 8290,
      "weet": 8291,
      "Ġcommuting": 8292,
      "Ġjoins": 8293,
      "Ġhousehold": 8294,
      "breathing": 8295,
      "Ġhammers": 8296,
      "conom": 8297,
      "Ġvision": 8298,
      "Ġdraw": 8299,
      "Ġnumbered": 8300,
      "Ġpackages": 8301,
      "Ġsurvival": 8302,
      "Ġwooden": 8303,
      "Ġshredding": 8304,
      "Ġpodiums": 8305,
      "Ġawa": 8306,
      "Ġweekend": 8307,
      "Ġsquawking": 8308,
      "estyle": 8309,
      "Ġfamiliar": 8310,
      "ĠZebras": 8311,
      "keeper": 8312,
      "Ġdoubt": 8313,
      "Ġinferno": 8314,
      "Ġdivorce": 8315,
      "Ġarguing": 8316,
      "Ġscanning": 8317,
      "Ġmegaph": 8318,
      "OT": 8319,
      "Welcome": 8320,
      "af": 8321,
      "bust": 8322,
      "otion": 8323,
      "sing": 8324,
      "tu": 8325,
      "worm": 8326,
      "Ġdaring": 8327,
      "Ġmowing": 8328,
      "level": 8329,
      "ete": 8330,
      "Ġwithin": 8331,
      "Ġunco": 8332,
      "lier": 8333,
      "ĠPink": 8334,
      "Ġflow": 8335,
      "asting": 8336,
      "Ġobe": 8337,
      "Ġswamp": 8338,
      "ĠBl": 8339,
      "ĠBubble": 8340,
      "ĠFaster": 8341,
      "agger": 8342,
      "ĠThank": 8343,
      "aky": 8344,
      "Ġcracking": 8345,
      "Ġprick": 8346,
      "Ġquantum": 8347,
      "Ġtraveled": 8348,
      "Ġpros": 8349,
      "Ġprove": 8350,
      "Ġoverhead": 8351,
      "ĠRain": 8352,
      "ought": 8353,
      "Ġhairsty": 8354,
      "Ġadap": 8355,
      "Ġrights": 8356,
      "Ġbeavers": 8357,
      "Ġinvite": 8358,
      "Ġbowtie": 8359,
      "ĠCluck": 8360,
      "Ġpreference": 8361,
      "Ġcontact": 8362,
      "Ġmedit": 8363,
      "Ġforests": 8364,
      "Ġdirection": 8365,
      "Ġlessons": 8366,
      "ortable": 8367,
      "Ġproductivity": 8368,
      "Ġtune": 8369,
      "Ġnightclubs": 8370,
      "Ġjuicy": 8371,
      "Ġdevouring": 8372,
      "Ġmartini": 8373,
      "flavored": 8374,
      "Ġcelebra": 8375,
      "ergy": 8376,
      "Ġhorsing": 8377,
      "ĠPandas": 8378,
      "worthy": 8379,
      "Ġsculp": 8380,
      "ĠGrandmothers": 8381,
      "ĠMichelin": 8382,
      "date": 8383,
      "gress": 8384,
      "kind": 8385,
      "wls": 8386,
      "Ġpachyder": 8387,
      "Ġbecame": 8388,
      "lay": 8389,
      "imbing": 8390,
      "aders": 8391,
      "Ġsequ": 8392,
      "Ġseven": 8393,
      "Ġneon": 8394,
      "ĠWaves": 8395,
      "umming": 8396,
      "Ġleague": 8397,
      "ĠStop": 8398,
      "ĠSlam": 8399,
      "ĠItalian": 8400,
      "Ġexcellent": 8401,
      "acker": 8402,
      "Ġletters": 8403,
      "ĠDr": 8404,
      "ĠDay": 8405,
      "Ġgrizzly": 8406,
      "Ġmagaz": 8407,
      "Ġminute": 8408,
      "Ġfoam": 8409,
      "Ġsuperv": 8410,
      "Ġcoral": 8411,
      "Ġchaotic": 8412,
      "Ġofficially": 8413,
      "Ġresult": 8414,
      "Ġnail": 8415,
      "Ġfitness": 8416,
      "Ġfunction": 8417,
      "methr": 8418,
      "Ġendless": 8419,
      "Ġskateboards": 8420,
      "Ġintensely": 8421,
      "Ġbusting": 8422,
      "Ġexpectations": 8423,
      "Ġabducting": 8424,
      "Ġviol": 8425,
      "Ġzebra": 8426,
      "ĠFlowers": 8427,
      "Ġerup": 8428,
      "Ġscratching": 8429,
      "Ġextravagant": 8430,
      "Ġglamorous": 8431,
      "Ġaerial": 8432,
      "Ġscenario": 8433,
      "tan": 8434,
      "Ġscep": 8435,
      "Ġwise": 8436,
      "Ġpeck": 8437,
      "stal": 8438,
      "Ġhail": 8439,
      "oops": 8440,
      "Ġreindeer": 8441,
      "Ġdonut": 8442,
      "Ġketchup": 8443,
      "Ġsites": 8444,
      "Ġraces": 8445,
      "ĠCor": 8446,
      "Ġalmost": 8447,
      "ĠMaking": 8448,
      "Ġvir": 8449,
      "Ġvamp": 8450,
      "ĠJe": 8451,
      "ĠNam": 8452,
      "Ġray": 8453,
      "ovels": 8454,
      "Ġstrict": 8455,
      "Ġprogress": 8456,
      "ketball": 8457,
      "Ġshells": 8458,
      "peed": 8459,
      "Ġresults": 8460,
      "Ġbibs": 8461,
      "Ġstops": 8462,
      "Ġcookout": 8463,
      "Ġtanks": 8464,
      "Ġgorillas": 8465,
      "Ġlifestyle": 8466,
      "Ġevolved": 8467,
      "Ġprojector": 8468,
      "Ġvirtual": 8469,
      "Ġbounce": 8470,
      "Ġbuddies": 8471,
      "Ġmelody": 8472,
      "Ġmimicking": 8473,
      "Ġanswer": 8474,
      "building": 8475,
      "Ġcapturing": 8476,
      "Ġstorytelling": 8477,
      "Ġscepter": 8478,
      "??": 8479,
      "aa": 8480,
      "class": 8481,
      "rr": 8482,
      "Ġet": 8483,
      "Ġtending": 8484,
      "onic": 8485,
      "Ġsick": 8486,
      "Ġsets": 8487,
      "Ġban": 8488,
      "Ġbump": 8489,
      "Ġpunch": 8490,
      "ese": 8491,
      "Ġanti": 8492,
      "Ġanten": 8493,
      "ĠTower": 8494,
      "alle": 8495,
      "ider": 8496,
      "Ġdonning": 8497,
      "Ġmanager": 8498,
      "Ġsearching": 8499,
      "seeing": 8500,
      "Ġspan": 8501,
      "Ġruff": 8502,
      "Ġdemon": 8503,
      "ourse": 8504,
      "ĠDes": 8505,
      "Ġcoladas": 8506,
      "ĠEn": 8507,
      "Ġpaid": 8508,
      "Ġlakes": 8509,
      "ĠNet": 8510,
      "Ġsilly": 8511,
      "Ġcapture": 8512,
      "peare": 8513,
      "Ġstream": 8514,
      "Ġflapping": 8515,
      "Ġclient": 8516,
      "Ġculture": 8517,
      "Ġgardens": 8518,
      "Ġhoping": 8519,
      "Ġattentive": 8520,
      "Ġwaddles": 8521,
      "ĠFrank": 8522,
      "Ġupscale": 8523,
      "ĠRepub": 8524,
      "Ġsummit": 8525,
      "Ġsweetest": 8526,
      "ĠAmong": 8527,
      "Ġmemo": 8528,
      "Ġcomfort": 8529,
      "Ġfiery": 8530,
      "force": 8531,
      "Ġestablishments": 8532,
      "Ġsimple": 8533,
      "Ġexchange": 8534,
      "Ġwisdom": 8535,
      "Ġmargarita": 8536,
      "Ġdocumentary": 8537,
      "Ġeducation": 8538,
      "Ġproudly": 8539,
      "Ġsubstitute": 8540,
      "Ġoccasion": 8541,
      "Ġtexting": 8542,
      "'!": 8543,
      "based": 8544,
      "fting": 8545,
      "hats": 8546,
      "rors": 8547,
      "Ġu": 8548,
      "Ġene": 8549,
      "Ġves": 8550,
      "Ġpure": 8551,
      "Ġfool": 8552,
      "Ġdad": 8553,
      "ĠTech": 8554,
      "oted": 8555,
      "Ġstable": 8556,
      "lation": 8557,
      "Ġforks": 8558,
      "Ġunimp": 8559,
      "Ġropes": 8560,
      "Ġmotion": 8561,
      "ĠBig": 8562,
      "ĠFo": 8563,
      "Ġperch": 8564,
      "Ġchew": 8565,
      "Ġyours": 8566,
      "anges": 8567,
      "Ġraised": 8568,
      "Ġelection": 8569,
      "Ġnodding": 8570,
      "Ġcaptain": 8571,
      "Ġjoe": 8572,
      "Ġpeel": 8573,
      "Ġpatience": 8574,
      "Ġbasketballs": 8575,
      "ĠSee": 8576,
      "Ġlaughs": 8577,
      "Ġcomedian": 8578,
      "Ġweightlessly": 8579,
      "Ġrollerco": 8580,
      "Ġtentacle": 8581,
      "Ġgloves": 8582,
      "Ġcharge": 8583,
      "offs": 8584,
      "Ġschol": 8585,
      "Ġcompanions": 8586,
      "Ġcops": 8587,
      "Ġsilence": 8588,
      "Ġduties": 8589,
      "Ġvillain": 8590,
      "Ġbellies": 8591,
      "Ġchopsticks": 8592,
      "Ġlandscapes": 8593,
      "Ġlicenses": 8594,
      "Ġmethod": 8595,
      "Ġlobster": 8596,
      "ĠPancakes": 8597,
      "Looks": 8598,
      "ces": 8599,
      "ele": 8600,
      "iff": 8601,
      "master": 8602,
      "watching": 8603,
      "atin": 8604,
      "ĠTex": 8605,
      "otch": 8606,
      "usions": 8607,
      "etr": 8608,
      "Ġeconom": 8609,
      "rage": 8610,
      "Ġshad": 8611,
      "Ġshots": 8612,
      "lift": 8613,
      "ĠSqu": 8614,
      "Ġrange": 8615,
      "ĠParty": 8616,
      "ĠCarrots": 8617,
      "Ġexcess": 8618,
      "Ġalter": 8619,
      "ĠFla": 8620,
      "ĠFinding": 8621,
      "Ġherding": 8622,
      "ĠNA": 8623,
      "Ġsaus": 8624,
      "ĠInc": 8625,
      "ĠUber": 8626,
      "Ġbaff": 8627,
      "Ġminds": 8628,
      "Ġpeels": 8629,
      "Ġflame": 8630,
      "Ġsubj": 8631,
      "akespeare": 8632,
      "Ġliteracy": 8633,
      "Ġaccessory": 8634,
      "Ġdecla": 8635,
      "Ġamidst": 8636,
      "Ġmedal": 8637,
      "ĠArt": 8638,
      "Ġsightseeing": 8639,
      "Ġcheckmate": 8640,
      "Ġsplashing": 8641,
      "ĠShakespeare": 8642,
      "Ġpackage": 8643,
      "Ġblackboard": 8644,
      "Ġstrikes": 8645,
      "Ġtorto": 8646,
      "Ġhygi": 8647,
      "Ġtundra": 8648,
      "Ġmasterpieces": 8649,
      "ĠNews": 8650,
      "Ġissue": 8651,
      "Ġprimates": 8652,
      "Ġrisk": 8653,
      "Ġepic": 8654,
      "Ġstereotypes": 8655,
      "ĠSoccer": 8656,
      "Ġrelationship": 8657,
      "ĠBasketball": 8658,
      "Ġunimpressed": 8659,
      ",'": 8660,
      "BA": 8661,
      "au": 8662,
      "bel": 8663,
      "fts": 8664,
      "fied": 8665,
      "pering": 8666,
      "powered": 8667,
      "ugs": 8668,
      "Ġ8": 8669,
      "Ġpra": 8670,
      "Ġpump": 8671,
      "Ġgang": 8672,
      "Ġhaun": 8673,
      "Ġree": 8674,
      "Ġrepe": 8675,
      "Ġwhipped": 8676,
      "Ġshining": 8677,
      "umbo": 8678,
      "ĠCome": 8679,
      "Ġexceptional": 8680,
      "Ġdealing": 8681,
      "ulate": 8682,
      "Ġhistor": 8683,
      "Ġdribble": 8684,
      "agues": 8685,
      "ĠDuck": 8686,
      "Ġvs": 8687,
      "Ġvote": 8688,
      "Ġenergy": 8689,
      "Ġappli": 8690,
      "Ġscoring": 8691,
      "Ġbark": 8692,
      "through": 8693,
      "bbit": 8694,
      "Ġsyrup": 8695,
      "making": 8696,
      "Ġturkey": 8697,
      "Ġpops": 8698,
      "Ġbattles": 8699,
      "working": 8700,
      "Ġgrassy": 8701,
      "Ġstays": 8702,
      "ĠFriday": 8703,
      "Ġremark": 8704,
      "Ġuniversity": 8705,
      "ĠQue": 8706,
      "Ġgolden": 8707,
      "Ġsparkling": 8708,
      "Ġtoothp": 8709,
      "Ġdigital": 8710,
      "ificent": 8711,
      "Ġpanda": 8712,
      "Ġcomplicated": 8713,
      "Ġopportunity": 8714,
      "Ġengulfed": 8715,
      "Ġpudding": 8716,
      "ĠNamaste": 8717,
      "allel": 8718,
      "bul": 8719,
      "dancing": 8720,
      "ibbling": 8721,
      "kule": 8722,
      "paced": 8723,
      "Ġace": 8724,
      "ints": 8725,
      "inds": 8726,
      "onies": 8727,
      "Ġsizz": 8728,
      "Ġbother": 8729,
      "Ġpig": 8730,
      "antically": 8731,
      "Ġcuts": 8732,
      "ĠTimes": 8733,
      "Ġnibbling": 8734,
      "Ġrefer": 8735,
      "chant": 8736,
      "ands": 8737,
      "Ġneat": 8738,
      "ĠSk": 8739,
      "ĠSoci": 8740,
      "Ġrul": 8741,
      "ĠPe": 8742,
      "ĠCo": 8743,
      "Ġfrantically": 8744,
      "Ġrole": 8745,
      "Ġplastic": 8746,
      "ensive": 8747,
      "ĠMars": 8748,
      "Ġcanes": 8749,
      "Ġplun": 8750,
      "ĠLa": 8751,
      "ĠJud": 8752,
      "estro": 8753,
      "Ġoption": 8754,
      "Ġcolony": 8755,
      "weed": 8756,
      "Ġadmit": 8757,
      "Ġsteam": 8758,
      "Ġstepping": 8759,
      "Ġpeering": 8760,
      "shine": 8761,
      "Ġtreasure": 8762,
      "Ġarmy": 8763,
      "Ġscales": 8764,
      "Ġprofits": 8765,
      "Ġinvading": 8766,
      "Ġnailed": 8767,
      "Ġrelaxed": 8768,
      "ĠBreak": 8769,
      "Ġequal": 8770,
      "Ġinspir": 8771,
      "ĠFishing": 8772,
      "ĠDinner": 8773,
      "Ġproducts": 8774,
      "ĠPlace": 8775,
      "Ġchampion": 8776,
      "ĠRob": 8777,
      "Ġdancer": 8778,
      "Ġdrums": 8779,
      "Ġnotepads": 8780,
      "Ġriver": 8781,
      "ĠGoldfish": 8782,
      "Ġoriginal": 8783,
      "Ġfinesse": 8784,
      "ĠTexas": 8785,
      "Ġexcessive": 8786,
      "ĠSociety": 8787,
      "Al": 8788,
      "Houston": 8789,
      "bar": 8790,
      "gling": 8791,
      "kins": 8792,
      "walking": 8793,
      "zart": 8794,
      "inc": 8795,
      "Ġsink": 8796,
      "erby": 8797,
      "ari": 8798,
      "Ġnuns": 8799,
      "irls": 8800,
      "Ġmanaging": 8801,
      "Ġunaff": 8802,
      "Ġheating": 8803,
      "ashes": 8804,
      "Ġplays": 8805,
      "Ġbeachside": 8806,
      "ĠEdition": 8807,
      "Ġlaunch": 8808,
      "Ġneedles": 8809,
      "Ġcrumb": 8810,
      "Ġbloom": 8811,
      "Ġgrasp": 8812,
      "Ġstrumming": 8813,
      "Ġslender": 8814,
      "Ġbehold": 8815,
      "Ġadds": 8816,
      "cod": 8817,
      "ĠNobody": 8818,
      "Ġlanded": 8819,
      "Ġnails": 8820,
      "Ġpopping": 8821,
      "Ġbikin": 8822,
      "ungle": 8823,
      "they": 8824,
      "Ġproducing": 8825,
      "ĠGetting": 8826,
      "Ġsilent": 8827,
      "Ġgrandmothers": 8828,
      "Ġjetpacks": 8829,
      "ĠRoller": 8830,
      "Ġpressing": 8831,
      "Ġdams": 8832,
      "ĠProf": 8833,
      "Ġ51": 8834,
      "Ġsleeping": 8835,
      "Ġenthusiastic": 8836,
      "Ġspatulas": 8837,
      "ĠBananas": 8838,
      "Ġindoors": 8839,
      "Ġtaxi": 8840,
      "Ġstructures": 8841,
      "Ġhydrant": 8842,
      "Ġmargaritas": 8843,
      "Ġefficient": 8844,
      "ographed": 8845,
      "Ġholiday": 8846,
      "Ġlollipops": 8847,
      "Ġunaffected": 8848,
      "How": 8849,
      "Lad": 8850,
      "Ġtar": 8851,
      "Ġcuc": 8852,
      "Ġfle": 8853,
      "ĠTony": 8854,
      "irts": 8855,
      "Ġbeans": 8856,
      "ooled": 8857,
      "Ġcab": 8858,
      "ĠSm": 8859,
      "ĠSom": 8860,
      "ĠStill": 8861,
      "ashing": 8862,
      "Ġparas": 8863,
      "Ġparallel": 8864,
      "ĠCity": 8865,
      "Ġexclusive": 8866,
      "Ġcarn": 8867,
      "Ġtrump": 8868,
      "fel": 8869,
      "stract": 8870,
      "Ġoh": 8871,
      "ĠMir": 8872,
      "ĠMother": 8873,
      "Ġreaders": 8874,
      "ĠEve": 8875,
      "epend": 8876,
      "ĠAnt": 8877,
      "ĠGe": 8878,
      "Ġconfident": 8879,
      "Ġsync": 8880,
      "athering": 8881,
      "Ġflamethr": 8882,
      "âĢ¦": 8883,
      "Ġartwork": 8884,
      "Ġpretend": 8885,
      "Ġspotted": 8886,
      "Ġincluded": 8887,
      "ĠZen": 8888,
      "Ġpositions": 8889,
      "Ġsilently": 8890,
      "ĠSurround": 8891,
      "Ġstunning": 8892,
      "Ġkidding": 8893,
      "Ġdemanding": 8894,
      "Ġpeanut": 8895,
      "Ġmaintaining": 8896,
      "Ġmechanical": 8897,
      "Ġspirit": 8898,
      "Ġopinions": 8899,
      "Ġveggies": 8900,
      "Ġgenius": 8901,
      "buster": 8902,
      "Ġukule": 8903,
      "ĠNASA": 8904,
      "Ġsausages": 8905,
      "Ġhygiene": 8906,
      "Ladies": 8907,
      "Take": 8908,
      "eav": 8909,
      "flam": 8910,
      "iors": 8911,
      "jacks": 8912,
      "case": 8913,
      "rect": 8914,
      "Ġwool": 8915,
      "Ġbought": 8916,
      "Ġfountain": 8917,
      "Ġdata": 8918,
      "order": 8919,
      "Ġanc": 8920,
      "Ġgel": 8921,
      "storming": 8922,
      "ande": 8923,
      "Ġlie": 8924,
      "Ġunable": 8925,
      "ĠWar": 8926,
      "Ġsitcom": 8927,
      "Ġrent": 8928,
      "ĠCatching": 8929,
      "Ġroar": 8930,
      "Ġsunb": 8931,
      "ĠMc": 8932,
      "Ġcancel": 8933,
      "Ġarena": 8934,
      "ĠNah": 8935,
      "Ġspacewalks": 8936,
      "Ġscre": 8937,
      "Ġguest": 8938,
      "Ġhula": 8939,
      "Ġinterac": 8940,
      "Ġhired": 8941,
      "Ġscaff": 8942,
      "Ġwalked": 8943,
      "Ġroads": 8944,
      "Ġhunger": 8945,
      "Ġmedium": 8946,
      "Ġharder": 8947,
      "Ġendeav": 8948,
      "Ġrequest": 8949,
      "ĠOnce": 8950,
      "Ġwallets": 8951,
      "Ġsaloon": 8952,
      "Ġexecution": 8953,
      "estrian": 8954,
      "Ġprojections": 8955,
      "Ġargue": 8956,
      "Ġparrots": 8957,
      "Ġtoothbr": 8958,
      "Ġinvestig": 8959,
      "Ġnervously": 8960,
      "ĠArea": 8961,
      "Ġdevices": 8962,
      "ĠMonday": 8963,
      "Ġpirouettes": 8964,
      "Ġreturn": 8965,
      "Ġdelightful": 8966,
      "Ġportrait": 8967,
      "Ġmotorcycle": 8968,
      "Ġtomatoes": 8969,
      "Ġsneakers": 8970,
      "slide": 8971,
      "Ġbouncing": 8972,
      "Ġjournal": 8973,
      "Ġanalyzing": 8974,
      "Ġdodging": 8975,
      "Ġconnoisseurs": 8976,
      "Ġlawnmower": 8977,
[...]
